{
  "version": "1.0",
  "truncation": {
    "direction": "Right",
    "max_length": 50,
    "strategy": "LongestFirst",
    "stride": 0
  },
  "padding": {
    "strategy": {
      "Fixed": 50
    },
    "direction": "Right",
    "pad_to_multiple_of": null,
    "pad_id": 0,
    "pad_type_id": 0,
    "pad_token": "[PAD]"
  },
  "added_tokens": [
    {
      "id": 0,
      "content": "[PAD]",
      "single_word": false,
      "lstrip": false,
      "rstrip": false,
      "normalized": false,
      "special": true
    },
    {
      "id": 1,
      "content": "[UNK]",
      "single_word": false,
      "lstrip": false,
      "rstrip": false,
      "normalized": false,
      "special": true
    }
  ],
  "normalizer": null,
  "pre_tokenizer": {
    "type": "ByteLevel",
    "add_prefix_space": false,
    "trim_offsets": true
  },
  "post_processor": {
    "type": "ByteLevel",
    "add_prefix_space": true,
    "trim_offsets": false
  },
  "decoder": {
    "type": "ByteLevel",
    "add_prefix_space": true,
    "trim_offsets": true
  },
  "model": {
    "type": "BPE",
    "dropout": null,
    "unk_token": null,
    "continuing_subword_prefix": null,
    "end_of_word_suffix": null,
    "fuse_unk": false,
    "vocab": {
      "[PAD]": 0,
      "[UNK]": 1,
      "!": 2,
      "\"": 3,
      "#": 4,
      "$": 5,
      "%": 6,
      "&": 7,
      "'": 8,
      "(": 9,
      ")": 10,
      "*": 11,
      "+": 12,
      ",": 13,
      "-": 14,
      ".": 15,
      "/": 16,
      "0": 17,
      "1": 18,
      "2": 19,
      "3": 20,
      "4": 21,
      "5": 22,
      "6": 23,
      "7": 24,
      "8": 25,
      "9": 26,
      ":": 27,
      ";": 28,
      "<": 29,
      "=": 30,
      ">": 31,
      "?": 32,
      "@": 33,
      "A": 34,
      "B": 35,
      "C": 36,
      "D": 37,
      "E": 38,
      "F": 39,
      "G": 40,
      "H": 41,
      "I": 42,
      "J": 43,
      "K": 44,
      "L": 45,
      "M": 46,
      "N": 47,
      "O": 48,
      "P": 49,
      "Q": 50,
      "R": 51,
      "S": 52,
      "T": 53,
      "U": 54,
      "V": 55,
      "W": 56,
      "X": 57,
      "Y": 58,
      "Z": 59,
      "[": 60,
      "\\": 61,
      "]": 62,
      "^": 63,
      "_": 64,
      "`": 65,
      "a": 66,
      "b": 67,
      "c": 68,
      "d": 69,
      "e": 70,
      "f": 71,
      "g": 72,
      "h": 73,
      "i": 74,
      "j": 75,
      "k": 76,
      "l": 77,
      "m": 78,
      "n": 79,
      "o": 80,
      "p": 81,
      "q": 82,
      "r": 83,
      "s": 84,
      "t": 85,
      "u": 86,
      "v": 87,
      "w": 88,
      "x": 89,
      "y": 90,
      "z": 91,
      "{": 92,
      "|": 93,
      "}": 94,
      "~": 95,
      "¡": 96,
      "¢": 97,
      "£": 98,
      "¤": 99,
      "¥": 100,
      "¦": 101,
      "§": 102,
      "¨": 103,
      "©": 104,
      "ª": 105,
      "«": 106,
      "¬": 107,
      "®": 108,
      "¯": 109,
      "°": 110,
      "±": 111,
      "²": 112,
      "³": 113,
      "´": 114,
      "µ": 115,
      "¶": 116,
      "·": 117,
      "¸": 118,
      "¹": 119,
      "º": 120,
      "»": 121,
      "¼": 122,
      "½": 123,
      "¾": 124,
      "¿": 125,
      "À": 126,
      "Á": 127,
      "Â": 128,
      "Ã": 129,
      "Ä": 130,
      "Å": 131,
      "Æ": 132,
      "Ç": 133,
      "È": 134,
      "É": 135,
      "Ê": 136,
      "Ë": 137,
      "Ì": 138,
      "Í": 139,
      "Î": 140,
      "Ï": 141,
      "Ð": 142,
      "Ñ": 143,
      "Ò": 144,
      "Ó": 145,
      "Ô": 146,
      "Õ": 147,
      "Ö": 148,
      "×": 149,
      "Ø": 150,
      "Ù": 151,
      "Ú": 152,
      "Û": 153,
      "Ü": 154,
      "Ý": 155,
      "Þ": 156,
      "ß": 157,
      "à": 158,
      "á": 159,
      "â": 160,
      "ã": 161,
      "ä": 162,
      "å": 163,
      "æ": 164,
      "ç": 165,
      "è": 166,
      "é": 167,
      "ê": 168,
      "ë": 169,
      "ì": 170,
      "í": 171,
      "î": 172,
      "ï": 173,
      "ð": 174,
      "ñ": 175,
      "ò": 176,
      "ó": 177,
      "ô": 178,
      "õ": 179,
      "ö": 180,
      "÷": 181,
      "ø": 182,
      "ù": 183,
      "ú": 184,
      "û": 185,
      "ü": 186,
      "ý": 187,
      "þ": 188,
      "ÿ": 189,
      "Ā": 190,
      "ā": 191,
      "Ă": 192,
      "ă": 193,
      "Ą": 194,
      "ą": 195,
      "Ć": 196,
      "ć": 197,
      "Ĉ": 198,
      "ĉ": 199,
      "Ċ": 200,
      "ċ": 201,
      "Č": 202,
      "č": 203,
      "Ď": 204,
      "ď": 205,
      "Đ": 206,
      "đ": 207,
      "Ē": 208,
      "ē": 209,
      "Ĕ": 210,
      "ĕ": 211,
      "Ė": 212,
      "ė": 213,
      "Ę": 214,
      "ę": 215,
      "Ě": 216,
      "ě": 217,
      "Ĝ": 218,
      "ĝ": 219,
      "Ğ": 220,
      "ğ": 221,
      "Ġ": 222,
      "ġ": 223,
      "Ģ": 224,
      "ģ": 225,
      "Ĥ": 226,
      "ĥ": 227,
      "Ħ": 228,
      "ħ": 229,
      "Ĩ": 230,
      "ĩ": 231,
      "Ī": 232,
      "ī": 233,
      "Ĭ": 234,
      "ĭ": 235,
      "Į": 236,
      "į": 237,
      "İ": 238,
      "ı": 239,
      "Ĳ": 240,
      "ĳ": 241,
      "Ĵ": 242,
      "ĵ": 243,
      "Ķ": 244,
      "ķ": 245,
      "ĸ": 246,
      "Ĺ": 247,
      "ĺ": 248,
      "Ļ": 249,
      "ļ": 250,
      "Ľ": 251,
      "ľ": 252,
      "Ŀ": 253,
      "ŀ": 254,
      "Ł": 255,
      "ł": 256,
      "Ń": 257,
      "á»": 258,
      "áº": 259,
      "ng": 260,
      "Ġt": 261,
      "Ġc": 262,
      "nh": 263,
      "Äĳ": 264,
      "ĠÄĳ": 265,
      "Ãł": 266,
      "Æ°": 267,
      "há»": 268,
      "Ġv": 269,
      "Ã¡": 270,
      "iá»": 271,
      "Ġ.": 272,
      "Ġb": 273,
      "Ġl": 274,
      "Ġk": 275,
      "Ġm": 276,
      "Æ°á»": 277,
      "Ġtr": 278,
      "hÃ": 279,
      "áº¿": 280,
      "Ġs": 281,
      "áº¡": 282,
      "Ġnh": 283,
      "áº£": 284,
      "Ġn": 285,
      "Ġth": 286,
      "Ġh": 287,
      "Ãª": 288,
      "Ġch": 289,
      "Ġg": 290,
      "iá»ĩ": 291,
      "Ġng": 292,
      "ĠcÃ": 293,
      "á»Ļ": 294,
      "áº¥": 295,
      "Ġp": 296,
      "Ãªn": 297,
      "Ġd": 298,
      "Ã¡c": 299,
      "á»ĳ": 300,
      "ĠvÃł": 301,
      "´ng": 302,
      "áºŃ": 303,
      "Æ¡": 304,
      "qu": 305,
      "Ġkh": 306,
      "Ã¢": 307,
      "á»Ľ": 308,
      "áº§": 309,
      "Æ°á»Ŀ": 310,
      "iáº¿": 311,
      "Ġcá»": 312,
      "uy": 313,
      "tr": 314,
      "ĠÄĳá»": 315,
      "Äĥ": 316,
      "Æ°á»£": 317,
      "Ã¬": 318,
      "ĠlÃł": 319,
      "Ġr": 320,
      "áº¡i": 321,
      "Ġcá»§": 322,
      "Ġcá»§a": 323,
      "ĠÄĳÃ": 324,
      "ĠcÃ³": 325,
      "á»Ľi": 326,
      "ong": 327,
      "ĠcÃ¡c": 328,
      "á»ĭ": 329,
      "an": 330,
      "Ġph": 331,
      "ch": 332,
      "Ġqu": 333,
      "Ġtá»": 334,
      "th": 335,
      "Ġgi": 336,
      "Ġhá»": 337,
      "áº¥t": 338,
      "hÃ´ng": 339,
      "iá»ģ": 340,
      "Ġtrong": 341,
      "inh": 342,
      "Æ°á»£c": 343,
      "á»±": 344,
      "įc": 345,
      "á»Ł": 346,
      "Ġx": 347,
      "Ġthá»": 348,
      "iÃªn": 349,
      "Ã´": 350,
      "iá»ĩn": 351,
      "ĠÄĳÆ°á»£c": 352,
      "thá»": 353,
      "áº¯": 354,
      "Ġcho": 355,
      "á»ĩ": 356,
      "Ãły": 357,
      "á»¯": 358,
      "anh": 359,
      "Ã¬nh": 360,
      "Ġchá»": 361,
      "iá»ģu": 362,
      "á»Ļt": 363,
      "Ġvá»Ľi": 364,
      "ĠkhÃ´ng": 365,
      "am": 366,
      "Æ°á»Ŀi": 367,
      "Æ°á»Ŀng": 368,
      "Æ°á»Ľ": 369,
      "áº§n": 370,
      "á»ģ": 371,
      "Ã¢n": 372,
      "á»¥": 373,
      "Æ°Æ¡": 374,
      "ai": 375,
      "ay": 376,
      "ĠngÆ°á»Ŀi": 377,
      "Ã³": 378,
      "Ġmá»Ļt": 379,
      "iá»ĥ": 380,
      "Ãłnh": 381,
      "©ng": 382,
      "Æ°Æ¡ng": 383,
      "gi": 384,
      "áº£i": 385,
      "ang": 386,
      "áº·": 387,
      "on": 388,
      "in": 389,
      "áºŃn": 390,
      "hÃŃ": 391,
      "oÃł": 392,
      "ĠnhÆ°": 393,
      "ÃŃ": 394,
      "©c": 395,
      "ung": 396,
      "ĠÄĳÃ£": 397,
      "Ġkhi": 398,
      "áº¿n": 399,
      "áº§u": 400,
      "Ġtá»«": 401,
      "ĠÄĳá»ĥ": 402,
      "au": 403,
      "á»¯ng": 404,
      "ao": 405,
      "Æ°á»Ľc": 406,
      "Ġnhá»¯ng": 407,
      "Äĥm": 408,
      "Ġá»Ł": 409,
      "Ġviá»ĩ": 410,
      "áº¿t": 411,
      "ph": 412,
      "eo": 413,
      "Ã´i": 414,
      "á»ķ": 415,
      "áº£n": 416,
      "iáº¿t": 417,
      "Ŀi": 418,
      "er": 419,
      "iáº¿n": 420,
      "á»ĩnh": 421,
      "Äĥng": 422,
      "ĠnÄĥm": 423,
      "Ã¢y": 424,
      "áº½": 425,
      "Ãº": 426,
      "Ã¡o": 427,
      "ĠÄĳÃ³": 428,
      "ĠÄĳáº¿n": 429,
      "thá»ĥ": 430,
      "Ġhá»įc": 431,
      "ĠcÃ´ng": 432,
      "¹ng": 433,
      "Æ¡n": 434,
      "hÃº": 435,
      "á»ĳc": 436,
      "ĠnÃły": 437,
      "Ã½": 438,
      "Ġnhiá»ģu": 439,
      "Ä©": 440,
      "áºŃt": 441,
      "áºŃp": 442,
      "á»ĵ": 443,
      "Ã¡t": 444,
      "ar": 445,
      "kh": 446,
      "Å©ng": 447,
      "ĠvÃło": 448,
      "Ġmá»": 449,
      "Ġsáº½": 450,
      "á»ĳi": 451,
      "Ġvá»ģ": 452,
      "Ġtáº¡i": 453,
      "áº«": 454,
      "há»įc": 455,
      "Ġra": 456,
      "Ã´ng": 457,
      "chá»": 458,
      "áº¡n": 459,
      "áº»": 460,
      "Ġbá»ĩnh": 461,
      "á»Ļng": 462,
      "Äĥn": 463,
      "Ġho": 464,
      "iÃª": 465,
      "ĠcÅ©ng": 466,
      "hÃ¬": 467,
      "Ã¡ng": 468,
      "iá»ĩu": 469,
      "ĠtrÃªn": 470,
      "áº±": 471,
      "áº©": 472,
      "Ãłi": 473,
      "á»Ļi": 474,
      "ħn": 475,
      "iá»ĥm": 476,
      "á»Ń": 477,
      "dá»¥": 478,
      "ngh": 479,
      "Ġy": 480,
      "Ġtheo": 481,
      "Ã¡n": 482,
      "á»ķi": 483,
      "Ġsau": 484,
      "Ãłng": 485,
      "ĠngÃły": 486,
      "áº£nh": 487,
      "uyá»": 488,
      "em": 489,
      "en": 490,
      "Ã©": 491,
      "al": 492,
      "Ġanh": 493,
      "á»±c": 494,
      "ĠtrÆ°á»Ŀng": 495,
      "á»ĭch": 496,
      "hÃ¢": 497,
      "viÃªn": 498,
      "áº¡o": 499,
      "Ã¡i": 500,
      "á»Ļc": 501,
      "oÃłn": 502,
      "sinh": 503,
      "Ġthu": 504,
      "Ã£": 505,
      "Ġpháº£i": 506,
      "ĠnhÃł": 507,
      "ĠlÃłm": 508,
      "ĠhÆ¡n": 509,
      "²ng": 510,
      "ĠtÃ´i": 511,
      "nghiá»ĩ": 512,
      "Ġgiá»": 513,
      "áº¥y": 514,
      "Ã¢m": 515,
      "á»į": 516,
      "Ġviá»ĩt": 517,
      "áº±ng": 518,
      "áº¥n": 519,
      "Ġcu": 520,
      "áº£ng": 521,
      "Ã¡ch": 522,
      "Ġkho": 523,
      "uyÃªn": 524,
      "áº¯c": 525,
      "áº£m": 526,
      "ĠÄĳiá»ģu": 527,
      "áº«n": 528,
      "Ġtu": 529,
      "nam": 530,
      "áº¡t": 531,
      "Ãło": 532,
      "ĵng": 533,
      "áº¥p": 534,
      "Ġsá»±": 535,
      "Æ°a": 536,
      "ia": 537,
      "ĠtrÆ°á»Ľc": 538,
      "²n": 539,
      "ĠnhÆ°ng": 540,
      "nhÃ¢n": 541,
      "Ġsá»ĳ": 542,
      "áº¥u": 543,
      "iá»ħn": 544,
      "Ġtiáº¿": 545,
      "áº·c": 546,
      "Ġcon": 547,
      "ĠnÃ³": 548,
      "im": 549,
      "Ġphá»": 550,
      "Ġngh": 551,
      "sÄ©": 552,
      "£p": 553,
      "Ġthi": 554,
      "Ãłn": 555,
      "á»£": 556,
      "ĥn": 557,
      "Ġchá»ī": 558,
      "id": 559,
      "á»ģn": 560,
      "uyá»ĥn": 561,
      "Ã¹ng": 562,
      "or": 563,
      "Ã¡nh": 564,
      "á»ĭnh": 565,
      "áº¹": 566,
      "áº£o": 567,
      "Æ°á»£ng": 568,
      "ho": 569,
      "ĠcÆ¡": 570,
      "uá»ĳ": 571,
      "Ġdo": 572,
      "Ġláº¡i": 573,
      "Ã´n": 574,
      "es": 575,
      "táº¿": 576,
      "±c": 577,
      "dá»¥ng": 578,
      "Ġviá»ĩc": 579,
      "Ġnháº¥t": 580,
      "sá»ĳ": 581,
      "Äĳá»Ļng": 582,
      "hÃ³": 583,
      "Äĳá»ĭnh": 584,
      "Ã¡p": 585,
      "hÃŃnh": 586,
      "Æ°á»Ł": 587,
      "há»ĩ": 588,
      "Ġbiáº¿t": 589,
      "Ġbá»ĭ": 590,
      "Æ°á»Łng": 591,
      "ĠthÃłnh": 592,
      "Ġa": 593,
      "Ġthá»Ŀi": 594,
      "ĠÄĳáº§u": 595,
      "hÃ¢n": 596,
      "Ġká»": 597,
      "hiá»ĩn": 598,
      "Ġmá»Ľi": 599,
      "hÃ¬nh": 600,
      "ĠcÃ²n": 601,
      "Ġf": 602,
      "áº¡ng": 603,
      "el": 604,
      "ĠÄĳáº¡i": 605,
      "gia": 606,
      "áº·t": 607,
      "ĠÄĳang": 608,
      "Ġráº¥t": 609,
      "ĠcÃ´": 610,
      "Ġtá»ķ": 611,
      "uyá»ĩ": 612,
      "áº¯t": 613,
      "00": 614,
      "ĠÄĳi": 615,
      "Ġlá»Ľ": 616,
      "á»©": 617,
      "ÃŃnh": 618,
      "áº¡nh": 619,
      "ĠphÃ¡t": 620,
      "Ġca": 621,
      "uáº¥t": 622,
      "ĠmÃł": 623,
      "Ġbá»Ļ": 624,
      "Ġbáº¡n": 625,
      "Ġtrung": 626,
      "Ã¹": 627,
      "oáº¡i": 628,
      "Ļi": 629,
      "Ġthá»±c": 630,
      "Ġcao": 631,
      "trÃ¬nh": 632,
      "ĠÃ´ng": 633,
      "ĠchÃº": 634,
      "Ġco": 635,
      "thu": 636,
      "ĠchÃŃnh": 637,
      "Ġu": 638,
      "Ġhai": 639,
      "iá»ĥn": 640,
      "Ġquy": 641,
      "ĠthÃ´ng": 642,
      "áº¿u": 643,
      "ĳng": 644,
      "Ġgiáº£i": 645,
      "á»«": 646,
      "Ġsinh": 647,
      "áº¯ng": 648,
      "ĠvÃ¬": 649,
      "Ġáº£nh": 650,
      "ĠmÃ¬nh": 651,
      "á»¥c": 652,
      "Æ¡i": 653,
      "ĠÄĳá»ĵng": 654,
      "ĠphÃ": 655,
      "há»£p": 656,
      "á»©c": 657,
      "á»ı": 658,
      "á»įng": 659,
      "ĠÄĳá»ģ": 660,
      "ĠcÃ¡ch": 661,
      "ĠnÃ³i": 662,
      "ĠhÃ": 663,
      "Ġkáº¿t": 664,
      "ĠcÃ¹ng": 665,
      "ĠlÃªn": 666,
      "á»ĳt": 667,
      "iá»ĩt": 668,
      "uyá»ĩn": 669,
      "Ġi": 670,
      "Ġquá»ĳc": 671,
      "ĠnÆ°á»Ľc": 672,
      "Ġqua": 673,
      "iá»ģn": 674,
      "oÃłi": 675,
      "iá»ĥu": 676,
      "iÃªu": 677,
      "ĠÄĳÃ¢y": 678,
      "nghiá»ĩp": 679,
      "ĠÄĳiá»ĥm": 680,
      "ĠgiÃ¡o": 681,
      "Ġdiá»ħn": 682,
      "Ãºc": 683,
      "phá»": 684,
      "ĠkhÃ¡c": 685,
      "ĠnÃªn": 686,
      "kho": 687,
      "Ġcáº§n": 688,
      "Ġem": 689,
      "Ã³ng": 690,
      "Ġhiá»ĩn": 691,
      "ÃŃch": 692,
      "ol": 693,
      "Ã²ng": 694,
      "á»Ŀi": 695,
      "ĠÄĳá»Ļi": 696,
      "Ġtiáº¿p": 697,
      "Ġdá»±": 698,
      "Ġw": 699,
      "nÄĥng": 700,
      "á»©ng": 701,
      "Ìģ": 702,
      "Ã¡m": 703,
      "Ĺi": 704,
      "ĠthÃ¡ng": 705,
      "Ġláº§n": 706,
      "gian": 707,
      "áº©n": 708,
      "viá»ĩn": 709,
      "Ġváº«n": 710,
      "Ġtá»ĳt": 711,
      "ĠtÃ¬nh": 712,
      "Ġtháº¿": 713,
      "cá»©": 714,
      "áº©m": 715,
      "Ġhá»į": 716,
      "Ġvi": 717,
      "Ġtá»Ľi": 718,
      "et": 719,
      "Ġtuá»ķi": 720,
      "lÃ½": 721,
      "ĠhÃł": 722,
      "ĠchÃºng": 723,
      "Ġkhá»": 724,
      "Ġdá»ĭch": 725,
      "tin": 726,
      "Ġcuá»Ļc": 727,
      "Ãºp": 728,
      "Ã©t": 729,
      "Ãªu": 730,
      "Ľi": 731,
      "ĠnháºŃn": 732,
      "Ġtráº»": 733,
      "áº¡c": 734,
      "ĠtráºŃn": 735,
      "ic": 736,
      "ĠgiÃºp": 737,
      "Ġthá»©": 738,
      "Ġtrá»Ł": 739,
      "Å©": 740,
      "Ġtá»±": 741,
      "Ì£": 742,
      "nhiÃªn": 743,
      "trá»ĭ": 744,
      "giá»": 745,
      "ĠÄĳá»ĳi": 746,
      "Ġmu": 747,
      "ĠthÃ¬": 748,
      "Ġnáº¿u": 749,
      "Ġcáº£": 750,
      "Ġj": 751,
      "ĠliÃªn": 752,
      "uyá»ģn": 753,
      "ĠcÃ¢": 754,
      "ĠtáºŃp": 755,
      "nghiá»ĩm": 756,
      "Ġtuy": 757,
      "ĠthÃ": 758,
      "it": 759,
      "Ġchá»§": 760,
      "cá»©u": 761,
      "quáº£": 762,
      "thÃłnh": 763,
      "iÃªm": 764,
      "Ġan": 765,
      "Ġto": 766,
      "Ġsá»Ń": 767,
      "áº¡ch": 768,
      "Ġphá»¥": 769,
      "Ġbáº±ng": 770,
      "há»Ļi": 771,
      "ac": 772,
      "ro": 773,
      "Ġquan": 774,
      "Äĳáº§u": 775,
      "ĠhÃłng": 776,
      "ĠthÃŃ": 777,
      "á»ĵng": 778,
      "Ġtriá»ĩu": 779,
      "Ġhoáº·c": 780,
      "ÌĢ": 781,
      "ıi": 782,
      "ĠmÃ¡": 783,
      "ĠbÃ³ng": 784,
      "chá»©c": 785,
      "ĠchÆ°a": 786,
      "Ġgia": 787,
      "Ġlu": 788,
      "ĠquÃ¡": 789,
      "Ġcov": 790,
      "is": 791,
      "ĠkhÃ³": 792,
      "Ġchia": 793,
      "ĠngoÃłi": 794,
      "tÃ¢m": 795,
      "lÆ°á»£ng": 796,
      "le": 797,
      "táº¡o": 798,
      "Ġhay": 799,
      "at": 800,
      "ĠchuyÃªn": 801,
      "áºŃu": 802,
      "Ġlá»Ľn": 803,
      "trÆ°á»Ŀng": 804,
      "áº¡m": 805,
      "ĠnhÃ¢n": 806,
      "Äĳá»Ļ": 807,
      "nghá»ĩ": 808,
      "nháºŃn": 809,
      "iá»ĩc": 810,
      "Ġgiá»¯": 811,
      "Ġráº±ng": 812,
      "Ã¢u": 813,
      "thá»©c": 814,
      "Ġtháº¥y": 815,
      "ĠbÃ¡c": 816,
      "áºŃy": 817,
      "Æ°á»Ľng": 818,
      "Ġtiá»ģn": 819,
      "ĠphÃ²ng": 820,
      "Ġmá»¹": 821,
      "Ġtham": 822,
      "Ġná»¯": 823,
      "áº¯n": 824,
      "á»³": 825,
      "dá»¥c": 826,
      "Ġtá»«ng": 827,
      "thá»§": 828,
      "á»«a": 829,
      "us": 830,
      "lá»±c": 831,
      "ĠchÆ°Æ¡ng": 832,
      "uá»ĳn": 833,
      "hi": 834,
      "pháº©m": 835,
      "īnh": 836,
      "áº«u": 837,
      "ĠÄĳá»ĭ": 838,
      "uyá»ħn": 839,
      "do": 840,
      "thuáºŃt": 841,
      "ĠÄĳÆ°a": 842,
      "Ġnam": 843,
      "viá»ĩc": 844,
      "áº·p": 845,
      "as": 846,
      "ĠbÃłi": 847,
      "ag": 848,
      "Ġsáº£n": 849,
      "Ġgáº§n": 850,
      "áº§y": 851,
      "Ġcovid": 852,
      "Æ°u": 853,
      "áº³": 854,
      "bá»ĭ": 855,
      "ĠvÄĥn": 856,
      "tiáº¿": 857,
      "ĠtÄĥng": 858,
      "ĠthÃª": 859,
      "uáº©n": 860,
      "Ġtp": 861,
      "Ġkinh": 862,
      "Ãµ": 863,
      "cÃ´ng": 864,
      "á»ĵn": 865,
      "..": 866,
      "tiÃªn": 867,
      "Ġpháº§n": 868,
      "ĠsÃ¢n": 869,
      "Ġbu": 870,
      "ĠbÃªn": 871,
      "quan": 872,
      "ĠyÃªu": 873,
      "áº§m": 874,
      "Ġnguyá»ħn": 875,
      "uá»ĳng": 876,
      "ĠÄĳÃ¡nh": 877,
      "ĠÄĥn": 878,
      "Ġmá»Ĺi": 879,
      "ĠthÆ°á»Ŀng": 880,
      "ĠÄĳáº¥u": 881,
      "ĠÄĳá»ģu": 882,
      "ĠthÃªm": 883,
      "quá»ĳc": 884,
      "tá»¥c": 885,
      "Ġphim": 886,
      "triá»ĥn": 887,
      "cm": 888,
      "Ã²": 889,
      "Ġxuáº¥t": 890,
      "Ġthay": 891,
      "Ġ...": 892,
      "Ġ1": 893,
      "Ġkhiáº¿n": 894,
      "ĠhÃ¬nh": 895,
      "cáº§u": 896,
      "á»ħ": 897,
      "hÃºt": 898,
      "il": 899,
      "tÃŃnh": 900,
      "ĠsÃ¡ng": 901,
      "Ġkhoa": 902,
      "sáº»": 903,
      "ra": 904,
      "áº³ng": 905,
      "hÃºc": 906,
      "ná»Ļi": 907,
      "Ġnay": 908,
      "Ġe": 909,
      "vá»¥": 910,
      "Ġkhu": 911,
      "Ġchá»ĭ": 912,
      "oo": 913,
      "Ġtuyá»ĥn": 914,
      "ĠdÃ¹ng": 915,
      "ĠhoÃłn": 916,
      "á»ĵi": 917,
      "Ġchuyá»ĥn": 918,
      "ĠnghiÃªn": 919,
      "áº¡y": 920,
      "giá»Ľi": 921,
      "Ġin": 922,
      "Ġtin": 923,
      "hÃłnh": 924,
      "áº·ng": 925,
      "ĠvÃ²ng": 926,
      "Äĳiá»ĥm": 927,
      "Ġlá»Ľp": 928,
      "Äĳá»ĵng": 929,
      "ĠxÃ©t": 930,
      "iá»ħ": 931,
      "ĠÄĳiá»ĩn": 932,
      "Ġbáº£o": 933,
      "ĠtÃłi": 934,
      "Ġcáº£m": 935,
      "Ġnhau": 936,
      "trá»įng": 937,
      "ĠgÃ¢y": 938,
      "biá»ĩt": 939,
      "Ġhá»ĵ": 940,
      "Ġkhoáº£ng": 941,
      "ĠtoÃłn": 942,
      "Ġsá»©c": 943,
      "Ġtiáº¿ng": 944,
      "įi": 945,
      "¥c": 946,
      "Æ°á»Ľi": 947,
      "âĢ": 948,
      "ĠphÆ°Æ¡ng": 949,
      "Ġso": 950,
      "Ġtrang": 951,
      "įn": 952,
      "ty": 953,
      "Ġhá»ĩ": 954,
      "Ġlo": 955,
      "Ġcháº¥t": 956,
      "Ã¬m": 957,
      "Ġba": 958,
      "to": 959,
      "Ġcáº§u": 960,
      "ÄĳÃ¬nh": 961,
      "iá»ħm": 962,
      "Ġbáº£n": 963,
      "ĠbÃ¬nh": 964,
      "Ġtáº¡o": 965,
      "Ġmá»įi": 966,
      "Ġbáº¥t": 967,
      "ĠâĢ": 968,
      "hoÃ¡": 969,
      "Ġvá»«a": 970,
      "ĠÄĳÆ°á»Ŀng": 971,
      "Ã³m": 972,
      "Ġthiáº¿t": 973,
      "tÃ¡c": 974,
      "ĠhoÃł": 975,
      "á»Ŀ": 976,
      "Äĳá»ķi": 977,
      "á»įc": 978,
      "ĠtÃ¬m": 979,
      "ÌĤ": 980,
      "Ġhoáº¡t": 981,
      "ĠÄĳáº·c": 982,
      "ĠngÃłnh": 983,
      "Ġmuá»ĳn": 984,
      "Ġo": 985,
      "uyáº¿n": 986,
      "báº£n": 987,
      "ĳi": 988,
      "Ġle": 989,
      "ĠtÃŃnh": 990,
      "Ġghi": 991,
      "iá»ĩm": 992,
      "Ġmang": 993,
      "Ġchi": 994,
      "cáº¥p": 995,
      "ad": 996,
      "Ġthanh": 997,
      "000": 998,
      "giÃ¡": 999,
      "áº¥m": 1000,
      "Ġká»¹": 1001,
      "xuáº¥t": 1002,
      "iáº¿u": 1003,
      "á»£i": 1004,
      "Ġcáº¥p": 1005,
      "pp": 1006,
      "ĠhÃ´": 1007,
      "ter": 1008,
      "lu": 1009,
      "Ġbáº¯t": 1010,
      "Ġthá»ĥ": 1011,
      "ing": 1012,
      "phÃ¡p": 1013,
      "Ã³c": 1014,
      "áº±m": 1015,
      "ĠnÃło": 1016,
      "ĠlÃºc": 1017,
      "Æ°á»£t": 1018,
      "Ġthá»ĭ": 1019,
      "Ġthá»§": 1020,
      "Ġnghá»": 1021,
      "ĠnhÃ³m": 1022,
      "ĠbÃ©": 1023,
      "thá»ĳng": 1024,
      "á»§": 1025,
      "lo": 1026,
      "Ġtruyá»ģn": 1027,
      "Ġcuá»ĳi": 1028,
      "áº¹p": 1029,
      "ĠgÃ¬": 1030,
      "Ġgáº·p": 1031,
      "Ġchiáº¿n": 1032,
      "trá»£": 1033,
      "thÃ´ng": 1034,
      "ĠmÃ¡y": 1035,
      "ly": 1036,
      "ĠbÃł": 1037,
      "vá»ĩ": 1038,
      "Ġloáº¡i": 1039,
      "Ġngay": 1040,
      "Ġtá»·": 1041,
      "pt": 1042,
      "Ġkháº£": 1043,
      "toÃłn": 1044,
      "ĠtÆ°Æ¡ng": 1045,
      "Ġgiáº£m": 1046,
      "Ġxem": 1047,
      "Ìī": 1048,
      "Ġkiá»ĥm": 1049,
      "un": 1050,
      "Ġtiáº¿n": 1051,
      "co": 1052,
      "liá»ĩu": 1053,
      "lv": 1054,
      "á»Łi": 1055,
      "Äĳo": 1056,
      "dá»±": 1057,
      "Ġquyáº¿t": 1058,
      "giáº£": 1059,
      "Ġá»©ng": 1060,
      "Ġhá»Ļi": 1061,
      "ĠÄĳá»ĭa": 1062,
      "vá»±c": 1063,
      "ĠcÃ¢u": 1064,
      "ĠmÃ¹": 1065,
      "Ġtá»īnh": 1066,
      "Ġtá»ķng": 1067,
      "ĠÄĳÄĥng": 1068,
      "hÃ¢u": 1069,
      "á»ĵm": 1070,
      "ĠÄĳÃło": 1071,
      "Ġbá»Łi": 1072,
      "Ġtrá»±c": 1073,
      "one": 1074,
      "tÃ´i": 1075,
      "táºŃp": 1076,
      "tu": 1077,
      "váºŃy": 1078,
      "á»·": 1079,
      "ĠxÃ£": 1080,
      "ĠbÃłn": 1081,
      "chÃŃ": 1082,
      "tháº¿": 1083,
      "ine": 1084,
      "Äĳá»ģ": 1085,
      "Ġgiá»¯a": 1086,
      "Ġnghá»ĩ": 1087,
      "Ä©nh": 1088,
      "khoa": 1089,
      "´i": 1090,
      "Ġhiá»ĩu": 1091,
      "Ġmáº¹": 1092,
      "Ġhlv": 1093,
      "ĠÄĳáº¡t": 1094,
      "ÃŃt": 1095,
      "lan": 1096,
      "máº·t": 1097,
      "Ġban": 1098,
      "Ġká»³": 1099,
      "©p": 1100,
      "Ġgiá»Ŀ": 1101,
      "Ġmá»©c": 1102,
      "sá»Ł": 1103,
      "Äĳáº¡o": 1104,
      "ĠÄĳÆ¡n": 1105,
      "Ġhá»Ĺ": 1106,
      "Ġbao": 1107,
      "ĠcÃ¡": 1108,
      "Ġná»Ļi": 1109,
      "Ġnhanh": 1110,
      "Ġsá»ĳng": 1111,
      "phÃ": 1112,
      "Ġmáº¡ng": 1113,
      "bá»ĩnh": 1114,
      "Ġhá»£p": 1115,
      "kiá»ĩn": 1116,
      "Ġsá»Ł": 1117,
      "iáº¿m": 1118,
      "dÃ¢n": 1119,
      "ĠmÃ¹a": 1120,
      "te": 1121,
      "bá»Ļ": 1122,
      "ĠhÃłnh": 1123,
      "bÃ¡o": 1124,
      "trÃŃ": 1125,
      "á»ĳn": 1126,
      "ĠtiÃªu": 1127,
      "thÃ¢n": 1128,
      "iv": 1129,
      "thÆ°Æ¡ng": 1130,
      "ĠluÃ´n": 1131,
      "ĠtÆ°": 1132,
      "quy": 1133,
      "ĠgiÃ¡": 1134,
      "Ġai": 1135,
      "Ġchung": 1136,
      "Ġnguy": 1137,
      "láº¡i": 1138,
      "ĠtÃªn": 1139,
      "ĠdÃ¹": 1140,
      "ĠtÃ¡c": 1141,
      "áº£y": 1142,
      "Ġngu": 1143,
      "ta": 1144,
      "Ġthuá»ĳc": 1145,
      "iÃªng": 1146,
      "ed": 1147,
      "Ġhoa": 1148,
      "Ġláº¥y": 1149,
      "Ġtuáº§n": 1150,
      "Ġtay": 1151,
      "chá»ī": 1152,
      "minh": 1153,
      "tra": 1154,
      "Ġdoanh": 1155,
      "phÆ°Æ¡ng": 1156,
      "ĠmÃ´n": 1157,
      "cáº£": 1158,
      "Ġquáº£n": 1159,
      "Ġtháº¯ng": 1160,
      "Ġ2": 1161,
      "Ġtáº¥t": 1162,
      "áº¯p": 1163,
      "ĠÃ½": 1164,
      "so": 1165,
      "Ġmáº·t": 1166,
      "Ã¨": 1167,
      "ĠgiÃ¡m": 1168,
      "ĠbÃ¡o": 1169,
      "ĠÃŃt": 1170,
      "ĠnghÄ©": 1171,
      "tiáº¿p": 1172,
      "ĠphÃ¢n": 1173,
      "á»Ńa": 1174,
      "trÆ°á»Łng": 1175,
      "ĠhÆ°á»Ľng": 1176,
      "cÃ¡ch": 1177,
      "huy": 1178,
      "ĠtÃ¢m": 1179,
      "ĠtiÃªm": 1180,
      "á»¡": 1181,
      "ĠÄĳt": 1182,
      "vá»įng": 1183,
      "ĠvÃ´": 1184,
      "hiá»ĩu": 1185,
      "Ġnhá»ı": 1186,
      "vá»Ľi": 1187,
      "Ġgiao": 1188,
      "káº¿t": 1189,
      "ie": 1190,
      "phÃŃ": 1191,
      "Ġdanh": 1192,
      "Æ°á»¡": 1193,
      "ue": 1194,
      "ĠphÃºt": 1195,
      "ĠchÃ¢u": 1196,
      "sá»ĳng": 1197,
      "iá»ĩp": 1198,
      "Ġnguá»ĵn": 1199,
      "Ġmáº¡nh": 1200,
      "trung": 1201,
      "Ġcung": 1202,
      "váºŃt": 1203,
      "Ġnhiá»ħm": 1204,
      "Ġmá»Ł": 1205,
      "Ġtháº§y": 1206,
      "Ġdáº«n": 1207,
      "Æ°ng": 1208,
      "Ãºt": 1209,
      "diá»ĩn": 1210,
      "ĠÄĳÃ³ng": 1211,
      "ĠÄĳa": 1212,
      "Ġvai": 1213,
      "Ġhu": 1214,
      "láºŃp": 1215,
      "ĠchÆ¡i": 1216,
      "thá»Ŀi": 1217,
      "Ġdá»ħ": 1218,
      "eb": 1219,
      "áº¯m": 1220,
      "cháº¿": 1221,
      "kiáº¿n": 1222,
      "khoáº»": 1223,
      "Ġdu": 1224,
      "Ġmáº¥t": 1225,
      "hÃłng": 1226,
      "ĠbÃ¡n": 1227,
      "ĠdÃłnh": 1228,
      "Ġdi": 1229,
      "Ġthpt": 1230,
      "á»Ĺi": 1231,
      "tá»Ń": 1232,
      "sá»±": 1233,
      "tÆ°á»£ng": 1234,
      "Ġhcm": 1235,
      "Ġbáº£ng": 1236,
      "Ġda": 1237,
      "Ġsang": 1238,
      "Ġváº¥n": 1239,
      "se": 1240,
      "cÃ¡o": 1241,
      "Ġnáº·ng": 1242,
      "ou": 1243,
      "vá»ĭ": 1244,
      "ĠÄĳÃº": 1245,
      "nay": 1246,
      "phá»ĳ": 1247,
      "Ġchuáº©n": 1248,
      "áºŃm": 1249,
      "ĠnguyÃªn": 1250,
      "á»«ng": 1251,
      "ÌĽ": 1252,
      "ĠnÆ¡i": 1253,
      "Äĳáº¥u": 1254,
      "áºµ": 1255,
      "re": 1256,
      "bá»ĳ": 1257,
      "Ġchá»įn": 1258,
      "Æ°á»¡ng": 1259,
      "ĠÄĳáº·t": 1260,
      "Ġvá»ĭ": 1261,
      "ĠlÃª": 1262,
      "Ġháº£i": 1263,
      "ĠphÃŃ": 1264,
      "ĠlÃ½": 1265,
      "ĠkhÃ¡ch": 1266,
      "ĠgÃ¡i": 1267,
      "Ġcáº¡nh": 1268,
      "ĠhÃ£": 1269,
      "ĠkhÃ¡n": 1270,
      "Ġphong": 1271,
      "ķi": 1272,
      "Ġxe": 1273,
      "ĠthÃ¡i": 1274,
      "Ġháº¿t": 1275,
      "ĠxÃ¢y": 1276,
      "Ġtá»ĳi": 1277,
      "cÆ¡": 1278,
      "ĠÄĳá»Ļng": 1279,
      "ĠÄĳá»©c": 1280,
      "ĠdÆ°á»Ľi": 1281,
      "ĠhÃ´m": 1282,
      "phá»¥c": 1283,
      "Ġminh": 1284,
      "ot": 1285,
      "thÆ°á»Ŀng": 1286,
      "Ġná»ķi": 1287,
      "Ġmáº«u": 1288,
      "ĠthÃŃch": 1289,
      "Ġrá»ĵi": 1290,
      "ig": 1291,
      "Ġal": 1292,
      "Ġus": 1293,
      "hÆ°á»Łng": 1294,
      "dá»±ng": 1295,
      "qua": 1296,
      "ĠÄĳÃ´ng": 1297,
      "ĠnÄĥng": 1298,
      "ĠchÃ¢n": 1299,
      "ĠÄĳá»§": 1300,
      "áº¿p": 1301,
      "ká»³": 1302,
      "ĠxÃ¡c": 1303,
      "ĠâĢ¦": 1304,
      "ĠbÆ°á»Ľc": 1305,
      "tiÃªu": 1306,
      "ĠtrÃ¡i": 1307,
      "ĠphÃ³": 1308,
      "Ġká»ĥ": 1309,
      "ĠÄĳáº¹p": 1310,
      "ĠÄĳÃºng": 1311,
      "Ġgiá»Ľi": 1312,
      "ion": 1313,
      "á»įi": 1314,
      "ĠhoÃłng": 1315,
      "ĠÃ¡p": 1316,
      "bÃ¬nh": 1317,
      "báº£o": 1318,
      "dá»ĭch": 1319,
      "Ġmáº¯c": 1320,
      "iáº¿c": 1321,
      "ui": 1322,
      "tráº¡ng": 1323,
      "ĠÄĳau": 1324,
      "ĠkÃ©": 1325,
      "Ġcá»ķ": 1326,
      "ĠriÃªng": 1327,
      "biáº¿n": 1328,
      "ĠÄĳo": 1329,
      "Ġngoáº¡i": 1330,
      "Ġtim": 1331,
      "chá»©ng": 1332,
      "Ġlá»Ŀi": 1333,
      "¯u": 1334,
      "khÄĥn": 1335,
      "ĠÃ¢m": 1336,
      "Ġtinh": 1337,
      "ĠthÆ°Æ¡ng": 1338,
      "máº¡nh": 1339,
      "Ġcá»Ļng": 1340,
      "ĠdÆ°Æ¡ng": 1341,
      "ĠnhÃ¬": 1342,
      "ĠÄĳáº£m": 1343,
      "Ġkáº¿": 1344,
      "Ġvá»£": 1345,
      "táº¡i": 1346,
      "ague": 1347,
      "Ġbá»ı": 1348,
      "Ġro": 1349,
      "Ġáº¥y": 1350,
      "vÄĥn": 1351,
      "tÃŃch": 1352,
      "Ġthá»Ń": 1353,
      "tÆ°": 1354,
      "Ġmua": 1355,
      "Ġleague": 1356,
      "Ġthuá»Ļc": 1357,
      "á»¯a": 1358,
      "©a": 1359,
      "ark": 1360,
      "thÆ°": 1361,
      "ĠvÃ¹ng": 1362,
      "Ġta": 1363,
      "and": 1364,
      "Ġcáº£nh": 1365,
      "nghá»": 1366,
      "áº¡p": 1367,
      "Ġhá»ĵi": 1368,
      "Ġmá»¥c": 1369,
      "ĠmÃ¡u": 1370,
      "Ġtho": 1371,
      "Ġne": 1372,
      "ĠrÃµ": 1373,
      "phone": 1374,
      "kÃ½": 1375,
      "Ġcá»ĳ": 1376,
      "Ġbuá»ķi": 1377,
      "Ġvid": 1378,
      "Ġchiáº¿c": 1379,
      "Ġre": 1380,
      "Ġquáº£ng": 1381,
      "á»Ľm": 1382,
      "á»¹": 1383,
      "Ġxu": 1384,
      "Ġhá»ıi": 1385,
      "Ã³p": 1386,
      "á»ĭp": 1387,
      "khai": 1388,
      "Ã¡y": 1389,
      "Ġhuy": 1390,
      "Ġná»ģn": 1391,
      "Ġusd": 1392,
      "Ã¢ng": 1393,
      "Ġgá»ĵm": 1394,
      "Ġvideo": 1395,
      "Ġsao": 1396,
      "Ġsá»Ľm": 1397,
      "trang": 1398,
      "Ġthe": 1399,
      "dáº«n": 1400,
      "Ġchá»©ng": 1401,
      "sáº¯c": 1402,
      "Ġpháº£n": 1403,
      "Ġviáº¿t": 1404,
      "ard": 1405,
      "trÃ²": 1406,
      "ĠÄĳá»Ļ": 1407,
      "cÃ¹ng": 1408,
      "Ġsu": 1409,
      "cáº£m": 1410,
      "Ġduy": 1411,
      "ĠtrÆ°á»Łng": 1412,
      "hÃŃch": 1413,
      "Äĳoáº¡n": 1414,
      "Ġchu": 1415,
      "Ġar": 1416,
      "lá»ĩ": 1417,
      "Ã¡u": 1418,
      "á»Ĺ": 1419,
      "tiáº¿ng": 1420,
      "Ġkhá»ıi": 1421,
      "Ġbá»ĳ": 1422,
      "thoáº¡i": 1423,
      "Ġkiáº¿n": 1424,
      "diá»ħn": 1425,
      "Ġtriá»ĥn": 1426,
      "sÃ¡t": 1427,
      "sÃ¡ch": 1428,
      "Ġchá»ĳng": 1429,
      "Ġtrai": 1430,
      "ĠÄĳÃ´i": 1431,
      "ĠgiÃłnh": 1432,
      "ĠkhÃ¡": 1433,
      "Ġtráº§n": 1434,
      "nháº¥t": 1435,
      "Ġdáº¡y": 1436,
      "xÃºc": 1437,
      "káº¿": 1438,
      "Ġlá»ĭch": 1439,
      "Ãłu": 1440,
      "á»±a": 1441,
      "Ġviá»ĩn": 1442,
      "háºŃu": 1443,
      "sÆ°": 1444,
      "Ġtráº£": 1445,
      "Ġcá»¥": 1446,
      "ĠnháºŃt": 1447,
      "Ġthiáº¿u": 1448,
      "ĠváºŃt": 1449,
      "Ġcl": 1450,
      "ĠÄĳÃ¡ng": 1451,
      "thá»ĭ": 1452,
      "Ġnháº±m": 1453,
      "ĠtÃŃch": 1454,
      "ĠcÃ¡i": 1455,
      "ĠcÃº": 1456,
      "Äĳá»ĳc": 1457,
      "ĠphÃ¹": 1458,
      "cháº¥t": 1459,
      "ĠmÃłu": 1460,
      "Ġz": 1461,
      "Ġcam": 1462,
      "ĠnÃ¢ng": 1463,
      "ĠlÆ°u": 1464,
      "ĠnhÃ¬n": 1465,
      "dung": 1466,
      "os": 1467,
      "hoáº¡ch": 1468,
      "Ġtá»Ń": 1469,
      "ĠÄĳáº§y": 1470,
      "ĠmÃ´i": 1471,
      "Ġtiá»ĥu": 1472,
      "ĠchÄĥm": 1473,
      "ca": 1474,
      "thiáº¿t": 1475,
      "máº¯t": 1476,
      "Ġbiáº¿n": 1477,
      "ts": 1478,
      "ĠphÃŃa": 1479,
      "Ġung": 1480,
      "áº©y": 1481,
      "hÃ´": 1482,
      "ĠsÃ¡ch": 1483,
      "Ġhiá»ĥu": 1484,
      "mÃ´n": 1485,
      "ess": 1486,
      "ĠÄĳá»Ļc": 1487,
      "lÃł": 1488,
      "Ġmong": 1489,
      "Ġgiai": 1490,
      "cu": 1491,
      "ĠÄĳá»ĵ": 1492,
      "ff": 1493,
      "ĠlÃ£": 1494,
      "ĠvÆ°á»£t": 1495,
      "váº¥n": 1496,
      "tháº¯ng": 1497,
      "ĠváºŃn": 1498,
      "Ġnhá»Ŀ": 1499,
      "Ġvac": 1500,
      "Ġnháº¡c": 1501,
      "ÄĳÃ¢y": 1502,
      "uyá»ĩt": 1503,
      "Ġtiáº¿t": 1504,
      "ĠdÃłi": 1505,
      "á»Ńi": 1506,
      "ĠnháºŃp": 1507,
      "cine": 1508,
      "ĠmÃłn": 1509,
      "thiá»ĩn": 1510,
      "nghá»ĭ": 1511,
      "ĠÄĳÃł": 1512,
      "Ã£n": 1513,
      "Ġvaccine": 1514,
      "Ã²n": 1515,
      "Ġdá»¯": 1516,
      "chá»įn": 1517,
      "ĠÃ¡o": 1518,
      "Ġvui": 1519,
      "cáº£nh": 1520,
      "ĠvÅ©": 1521,
      "rus": 1522,
      "ĠháºŃu": 1523,
      "sao": 1524,
      "Ġmáº·c": 1525,
      "ĠtrÃ¬nh": 1526,
      "Ġnáº±m": 1527,
      "Ġkim": 1528,
      "Ġcá»Ń": 1529,
      "Ġchiá»ģu": 1530,
      "ĠÄĳá»©ng": 1531,
      "tay": 1532,
      "luáºŃn": 1533,
      "Ġla": 1534,
      "Ġtrao": 1535,
      "ov": 1536,
      "Ġgá»Ńi": 1537,
      "Ãµi": 1538,
      "ĠtháºŃt": 1539,
      "phá»§": 1540,
      "ws": 1541,
      "Ìĥ": 1542,
      "ĠngÃ´i": 1543,
      "Ġtáº¥n": 1544,
      "Ġapp": 1545,
      "Ġ5": 1546,
      "Ġgá»įi": 1547,
      "ity": 1548,
      "Ġxuá»ĳng": 1549,
      "ĠÄĳh": 1550,
      "Ġbáº¯c": 1551,
      "ĠhÃłn": 1552,
      "ĠphÃ¡p": 1553,
      "Ġkhá»ĳi": 1554,
      "chÃŃnh": 1555,
      "sáº£n": 1556,
      "Ġáº¥n": 1557,
      "Ġtráº£i": 1558,
      "Ã£i": 1559,
      "Äĳáº¡i": 1560,
      "ĠmÃ´": 1561,
      "tuyáº¿n": 1562,
      "pháº§n": 1563,
      "soÃ¡t": 1564,
      "iá»ģm": 1565,
      "Ġxa": 1566,
      "ent": 1567,
      "ĠkhÃ¡m": 1568,
      "máº¹": 1569,
      "tháº§n": 1570,
      "Ġvirus": 1571,
      "nghÄ©": 1572,
      "ĠthÃ¢n": 1573,
      "nÃło": 1574,
      "Ġsuy": 1575,
      "pháº¡m": 1576,
      "Ġngá»įc": 1577,
      "Ġnghá»ī": 1578,
      "ngá»¯": 1579,
      "dÆ°Æ¡ng": 1580,
      "ĠdÃ¢n": 1581,
      "ÄĳÃ¡": 1582,
      "sung": 1583,
      "Ġcá»©": 1584,
      "ram": 1585,
      "Ġá»ķ": 1586,
      "Ġxin": 1587,
      "tuyá»ĥn": 1588,
      "ĠÄĳá»ĭnh": 1589,
      "Ġxá»Ń": 1590,
      "Ġlinh": 1591,
      "Ġná»¯a": 1592,
      "Ã³n": 1593,
      "ĠquáºŃn": 1594,
      "luyá»ĩn": 1595,
      "Ã£o": 1596,
      "ĠcÃ¢n": 1597,
      "ba": 1598,
      "chuyá»ĩn": 1599,
      "Ġgiáº£ng": 1600,
      "ĠhÃ¡t": 1601,
      "Ġnghá»ģ": 1602,
      "ook": 1603,
      "Ġcháº¿": 1604,
      "Ãªm": 1605,
      "vi": 1606,
      "phÃ²ng": 1607,
      "giá»Ŀ": 1608,
      "Äĳá»Ŀi": 1609,
      "ne": 1610,
      "Ġhy": 1611,
      "ak": 1612,
      "cá»±c": 1613,
      "uá»ĳt": 1614,
      "Ġphá»¥c": 1615,
      "hoÃł": 1616,
      "Ġnghe": 1617,
      "Ġpha": 1618,
      "Ġquay": 1619,
      "Ġsong": 1620,
      "Ġbay": 1621,
      "ort": 1622,
      "ik": 1623,
      "Ġpark": 1624,
      "Ġmar": 1625,
      "há»ĵ": 1626,
      "Ġbar": 1627,
      "iver": 1628,
      "dÆ°á»¡ng": 1629,
      "Ġkhai": 1630,
      "Ġchá»¯": 1631,
      "tá»±": 1632,
      "ĠlÃ¢y": 1633,
      "huynh": 1634,
      "Łi": 1635,
      "ĠlÄ©nh": 1636,
      "giÃ¡o": 1637,
      "rid": 1638,
      "Ġviet": 1639,
      "ná»¯": 1640,
      "st": 1641,
      "Ġchuyá»ĩn": 1642,
      "Ġpháº¡m": 1643,
      "Ġuá»ĳng": 1644,
      "nhiá»ĩm": 1645,
      "ĠtoÃ¡n": 1646,
      "Ġlá»£i": 1647,
      "mar": 1648,
      "ap": 1649,
      "ĠÄĳÃ¡": 1650,
      "ĠÄĳÃ¡p": 1651,
      "Ġman": 1652,
      "xuyÃªn": 1653,
      "dÃłi": 1654,
      "áº©u": 1655,
      "Ġhuyá»ĩn": 1656,
      "ninh": 1657,
      "Ġpháº«u": 1658,
      "Ġ3": 1659,
      "nháºŃp": 1660,
      "Ġmai": 1661,
      "há»¯u": 1662,
      "ĠtÃ¢y": 1663,
      "Ġyáº¿u": 1664,
      "ÃŃn": 1665,
      "la": 1666,
      "tiáº¿t": 1667,
      "háº¡n": 1668,
      "ord": 1669,
      "Ġol": 1670,
      "Ġapple": 1671,
      "Ġtrá»įng": 1672,
      "Ġxáº¿p": 1673,
      "ĠlÃ¢u": 1674,
      "nÆ°á»Ľc": 1675,
      "ĠhoÃ¡": 1676,
      "dÃµi": 1677,
      "nd": 1678,
      "ian": 1679,
      "Ġiphone": 1680,
      "hÃ³ng": 1681,
      "Ġlá»±a": 1682,
      "ban": 1683,
      "bu": 1684,
      "ĠÄĳoÃłn": 1685,
      "Ġháº¡n": 1686,
      "toÃ¡n": 1687,
      "Ġcháº¡y": 1688,
      "Ġgiá»ĳng": 1689,
      "Ġbá»ķ": 1690,
      "phÃ¡t": 1691,
      "theo": 1692,
      "lai": 1693,
      "ĠsiÃªu": 1694,
      "vn": 1695,
      "Ġchá»ĵng": 1696,
      "Ġtranh": 1697,
      "Ġsai": 1698,
      "Ġxáº£y": 1699,
      "doanh": 1700,
      "ua": 1701,
      "ngá»Ŀ": 1702,
      "ĠtháºŃm": 1703,
      "á»³nh": 1704,
      "áºµn": 1705,
      "po": 1706,
      "Ġquyá»ģn": 1707,
      "tá»ĭch": 1708,
      "Ġse": 1709,
      "chá»§": 1710,
      "Ġcha": 1711,
      "ck": 1712,
      "Ġbiá»ĥu": 1713,
      "tÃłi": 1714,
      "quyáº¿t": 1715,
      "sÃ³c": 1716,
      "Ġcáº£i": 1717,
      "Ġháº¡nh": 1718,
      "Ġsáºµn": 1719,
      "if": 1720,
      "ĠÄĳáº¥t": 1721,
      "Ġhá»ĵng": 1722,
      "son": 1723,
      "Ġvá»¥": 1724,
      "bÃłn": 1725,
      "ĠÄĳá»įc": 1726,
      "sá»Ń": 1727,
      "Ġcan": 1728,
      "ĠnghiÃªm": 1729,
      "hcm": 1730,
      "Ġnhiá»ĩt": 1731,
      "gá»ĵm": 1732,
      "Ġfac": 1733,
      "ĠláºŃp": 1734,
      "ĠvÃłi": 1735,
      "Ġmo": 1736,
      "ĠviÃªm": 1737,
      "Ġcháº¯c": 1738,
      "ĠhÃ£y": 1739,
      "ĠtrÃ¡nh": 1740,
      "tá»ĳ": 1741,
      "há»Ļ": 1742,
      "ĠcÃłng": 1743,
      "ĠÄĳá»£": 1744,
      "Ġthá»Ł": 1745,
      "Ġnhu": 1746,
      "Ġtháº¥p": 1747,
      "Ġkháº³ng": 1748,
      "Ġthai": 1749,
      "Ġphá»ķ": 1750,
      "Ġquang": 1751,
      "Ġdáº¥u": 1752,
      "ri": 1753,
      "ĠlÆ°Æ¡ng": 1754,
      "Ġthua": 1755,
      "giang": 1756,
      "ĠkÃ©o": 1757,
      "mp": 1758,
      "Ġst": 1759,
      "tÆ°á»Łng": 1760,
      "phÃ©p": 1761,
      "ĠÄĳá»Ŀi": 1762,
      "ĠlÆ°á»£t": 1763,
      "ĠkÃ½": 1764,
      "loáº¡i": 1765,
      "ĠthiÃªn": 1766,
      "Ġ4": 1767,
      "hÃ´n": 1768,
      "Ġká»·": 1769,
      "Å©i": 1770,
      "á»ĳng": 1771,
      "ÄĳoÃłn": 1772,
      "Ġmáº¯t": 1773,
      "Ġphá»ĳi": 1774,
      "hiá»ĥm": 1775,
      "net": 1776,
      "Ġau": 1777,
      "vong": 1778,
      "Ġmad": 1779,
      "Ġma": 1780,
      "sá»©c": 1781,
      "Ġkhá»Łi": 1782,
      "phÃºc": 1783,
      "á»įn": 1784,
      "Ġkhuyáº¿n": 1785,
      "ebook": 1786,
      "ĠÆ°u": 1787,
      "chuáº©n": 1788,
      "nháºŃt": 1789,
      "sÃłng": 1790,
      "¥p": 1791,
      "thanh": 1792,
      "má»Ļ": 1793,
      "Ġchá»©c": 1794,
      "quÃ¢n": 1795,
      "Ġchá»¥p": 1796,
      "Ġtt": 1797,
      "tinh": 1798,
      "ĠxuÃ¢n": 1799,
      "ĠÄĳáº¡o": 1800,
      "Ġhiá»ĩp": 1801,
      "ĠgÃ³p": 1802,
      "ĠÄĳÃłn": 1803,
      "áº¹n": 1804,
      "Ãºi": 1805,
      "ĠlÆ°á»£ng": 1806,
      "Ġsuá»ĳt": 1807,
      "hÃ¢m": 1808,
      "ĠÄĳá»ı": 1809,
      "thÃŃch": 1810,
      "Ġgd": 1811,
      "Ġfacebook": 1812,
      "uÃ´i": 1813,
      "uyáº¿t": 1814,
      "ĠlÃ£nh": 1815,
      "ÄĳoÃ¡n": 1816,
      "á»©t": 1817,
      "ber": 1818,
      "Ġsh": 1819,
      "nhiá»ħm": 1820,
      "Ġreal": 1821,
      "xin": 1822,
      "Ġas": 1823,
      "bá»ķ": 1824,
      "ld": 1825,
      "Ġde": 1826,
      "ip": 1827,
      "Ġbr": 1828,
      "trÃ¬": 1829,
      "Ġmiá»ħn": 1830,
      "xy": 1831,
      "ĠváºŃy": 1832,
      "ĠthÆ°": 1833,
      "tháº¥y": 1834,
      "quyá»ģn": 1835,
      "á»¥ng": 1836,
      "ngÆ°á»Ŀi": 1837,
      "ĠcáºŃu": 1838,
      "cÆ°á»Ŀng": 1839,
      "á»Ļn": 1840,
      "Ġinter": 1841,
      "Ġclb": 1842,
      "hÃ©p": 1843,
      "ern": 1844,
      "Ġmay": 1845,
      "ĠquÃ¢n": 1846,
      "Ġrá»Ļng": 1847,
      "á»µ": 1848,
      "ĠdÃ²ng": 1849,
      "ore": 1850,
      "Ġtháº¥t": 1851,
      "ez": 1852,
      "lá»Ľ": 1853,
      "áº·n": 1854,
      "ná»ĳi": 1855,
      "ĠÄĳá»Ļt": 1856,
      "cov": 1857,
      "ĠâĢĻ": 1858,
      "Ġjo": 1859,
      "Ġha": 1860,
      "Ġdiá»ĩn": 1861,
      "ĠÄĳÃªm": 1862,
      "Ġlá»ħ": 1863,
      "Ġcháº¥n": 1864,
      "sk": 1865,
      "hÆ°á»Ľng": 1866,
      "ton": 1867,
      "háº¡ng": 1868,
      "ĠtÃ¡i": 1869,
      "og": 1870,
      "Ġlao": 1871,
      "Ġnhá»Ľ": 1872,
      "Ì£ÌĤ": 1873,
      "táº£ng": 1874,
      "ei": 1875,
      "ĠÄĳá»£t": 1876,
      "Ġand": 1877,
      "truyá»ģn": 1878,
      "Ãºng": 1879,
      "lá»Ŀi": 1880,
      "xÃ©t": 1881,
      "ĠÄĳá»ķi": 1882,
      "Ġchá»ĭu": 1883,
      "be": 1884,
      "gáº¯ng": 1885,
      "ĠÃ´": 1886,
      "á»įt": 1887,
      "thÃºc": 1888,
      "ĠkhÃŃ": 1889,
      "«a": 1890,
      "giÃ¡c": 1891,
      "sÆ¡": 1892,
      "ĠcÃ¢y": 1893,
      "Ġmadrid": 1894,
      "ĠÃ¡": 1895,
      "ĠvÃłng": 1896,
      "Äĳá»ĭch": 1897,
      "Ġháº¡": 1898,
      "Ġeu": 1899,
      "nháº¡c": 1900,
      "Ġlan": 1901,
      "Ġdá»±a": 1902,
      "Ġá»ķn": 1903,
      "máº¡ch": 1904,
      "tiáº¿n": 1905,
      "yáº¿u": 1906,
      "Ġsp": 1907,
      "Ġquáº£": 1908,
      "ıng": 1909,
      "ĠcÄĥn": 1910,
      "báº¡i": 1911,
      "Ġsáº¯p": 1912,
      "Ġnhiá»ĩm": 1913,
      "chuyá»ĥn": 1914,
      "ĠchÃ": 1915,
      "á»ģm": 1916,
      "23": 1917,
      "Ġpro": 1918,
      "Ġseo": 1919,
      "ĠkÃŃch": 1920,
      "thao": 1921,
      "Ġká»ĭp": 1922,
      "ĠkhoÃ¡": 1923,
      "Ġbá»©c": 1924,
      "Ġnga": 1925,
      "ĠngÃ¢n": 1926,
      "Ġju": 1927,
      "how": 1928,
      "Ġam": 1929,
      "Ġtai": 1930,
      "Ġphá»ķi": 1931,
      "áºµng": 1932,
      "Ġsá»ĳt": 1933,
      "nÃªn": 1934,
      "est": 1935,
      "Ġncov": 1936,
      "Ġcity": 1937,
      "Ġnháº¹": 1938,
      "orld": 1939,
      "ngoÃłi": 1940,
      "bá»ķng": 1941,
      "Ġcáº·p": 1942,
      "tÃ¬nh": 1943,
      "ĠsÃ¢u": 1944,
      "thÃ¡i": 1945,
      "nghÄ©a": 1946,
      "ĠcÃ¡nh": 1947,
      "ĠhÃ£ng": 1948,
      "Ġná»Ĺ": 1949,
      "chÃ³ng": 1950,
      "ĠmÃ£": 1951,
      "alia": 1952,
      "Ġmá»ĳi": 1953,
      "náºµng": 1954,
      "Ġmá»Ŀi": 1955,
      "Ġly": 1956,
      "don": 1957,
      "Äĳiá»ĩn": 1958,
      "Ġchuyáº¿n": 1959,
      "Ġváº¯c": 1960,
      "ĠvÃŃ": 1961,
      "ĠmÅ©i": 1962,
      "Ġyou": 1963,
      "Ġhang": 1964,
      "ry": 1965,
      "Ġxo": 1966,
      "Ġchá»Ŀ": 1967,
      "xÃ¡c": 1968,
      "man": 1969,
      "ĠchÃ¡u": 1970,
      "ĠtÃ¢n": 1971,
      "ir": 1972,
      "ce": 1973,
      "Ġvá»ĳn": 1974,
      "Ġvá»ĩ": 1975,
      "ĠnÃ´ng": 1976,
      "niÃªn": 1977,
      "lá»Ļ": 1978,
      "ala": 1979,
      "Ġnháº¥n": 1980,
      "muá»ĳn": 1981,
      "ĠsÆ¡n": 1982,
      "á»ĥ": 1983,
      "Ġcáº¥m": 1984,
      "quang": 1985,
      "ĠcÅ©": 1986,
      "Ġdáº§n": 1987,
      "Ġngá»ĵi": 1988,
      "io": 1989,
      "sea": 1990,
      "nhÆ°": 1991,
      "Ġxanh": 1992,
      "Ġcá»¥c": 1993,
      "ĠluáºŃt": 1994,
      "ĠlÃ¢m": 1995,
      "ngo": 1996,
      "dÃ¹": 1997,
      "Ġgoo": 1998,
      "lá»ĭch": 1999,
      "ĠtuyÃªn": 2000,
      "ĠnghÄ©a": 2001,
      "Ġun": 2002,
      "Ġtop": 2003,
      "ĠnÃ£o": 2004,
      "Ġcháº¿t": 2005,
      "báº±ng": 2006,
      "Ġcá»Ńa": 2007,
      "amp": 2008,
      "elsea": 2009,
      "dÃłng": 2010,
      "Ġnew": 2011,
      "iz": 2012,
      "Ã³i": 2013,
      "Ġthá»ĳng": 2014,
      "Ġtháº§n": 2015,
      "hay": 2016,
      "ĠphiÃªn": 2017,
      "thá»±c": 2018,
      "con": 2019,
      "str": 2020,
      "aw": 2021,
      "nguyÃªn": 2022,
      "tranh": 2023,
      "ĠkhÃ¡ng": 2024,
      "ĠquÃ½": 2025,
      "«ng": 2026,
      "Ġchelsea": 2027,
      "Ġtuyá»ĩt": 2028,
      "Ġcáº¯t": 2029,
      "thÆ°á»Łng": 2030,
      "ver": 2031,
      "Ġniá»ģm": 2032,
      "máº«u": 2033,
      "Ġbarca": 2034,
      "Ġtuyáº¿n": 2035,
      "hoáº¡t": 2036,
      "om": 2037,
      "ĠÄĳáº©y": 2038,
      "bÃ¨": 2039,
      "Ġbro": 2040,
      "bay": 2041,
      "ngá»įc": 2042,
      "ja": 2043,
      "Ġpr": 2044,
      "Ġeuro": 2045,
      "nha": 2046,
      "nhÃł": 2047,
      "Ã¹i": 2048,
      "trÃ¹ng": 2049,
      "pool": 2050,
      "tháº£o": 2051,
      "Ġngá»§": 2052,
      "ĠtrÃŃ": 2053,
      "Ġngáº¯n": 2054,
      "yÃªu": 2055,
      "Ġcháº³ng": 2056,
      "iverpool": 2057,
      "lá»£i": 2058,
      "lá»Ľn": 2059,
      "Ġbe": 2060,
      "Ġchá»©a": 2061,
      "ĠcÃ¡n": 2062,
      "ex": 2063,
      "tel": 2064,
      "Ġworld": 2065,
      "Ġlong": 2066,
      "thuá»Ļc": 2067,
      "ĠvÃ©": 2068,
      "sen": 2069,
      "vÃ¬": 2070,
      "ur": 2071,
      "Ġliverpool": 2072,
      "ge": 2073,
      "á»ī": 2074,
      "khá»": 2075,
      "chÆ¡i": 2076,
      "vÅ©": 2077,
      "danh": 2078,
      "Ġtáº§m": 2079,
      "Ġthá»«a": 2080,
      "ĠsÆ¡": 2081,
      "ĠtrÃ²": 2082,
      "ĠngÄĥn": 2083,
      "cáºŃn": 2084,
      "Ġva": 2085,
      "táº£i": 2086,
      "Ġru": 2087,
      "lÃ²ng": 2088,
      "Ġsa": 2089,
      "ĠhÃ¢m": 2090,
      "Ġháº§u": 2091,
      "Ġbiá»ĥn": 2092,
      "ĠsÆ°": 2093,
      "ĠnuÃ´i": 2094,
      "ĠhÃłi": 2095,
      "Ġtuáº¥n": 2096,
      "ĠtáºŃn": 2097,
      "Ġliá»ģu": 2098,
      "Ġon": 2099,
      "áº§ng": 2100,
      "Äĳá»Ļi": 2101,
      "cao": 2102,
      "Ġrá»Ŀi": 2103,
      "ich": 2104,
      "kiáº¿m": 2105,
      "era": 2106,
      "Äĳá»ĳi": 2107,
      "Ġtáº¡m": 2108,
      "tt": 2109,
      "Ġgiá»į": 2110,
      "Ġif": 2111,
      "ĠtrÃ¡ch": 2112,
      "ÄĳÃ³": 2113,
      "Ġcá»©u": 2114,
      "ĠtÃłu": 2115,
      "ĠlÃ²ng": 2116,
      "phÃ¡": 2117,
      "Ġtráº¯ng": 2118,
      "linh": 2119,
      "Ġlá»±c": 2120,
      "huá»ĳng": 2121,
      "Ġváº¿t": 2122,
      "ill": 2123,
      "ĠhÃ¨": 2124,
      "Ġgiáº¥y": 2125,
      "ÄĳÆ°á»Ŀng": 2126,
      "Ġsan": 2127,
      "á»ĩt": 2128,
      "ĠhÃ¹ng": 2129,
      "gle": 2130,
      "Ġmá»ķ": 2131,
      "Ġtá»ĳc": 2132,
      "Äĳáº¹p": 2133,
      "ier": 2134,
      "cháº¯n": 2135,
      "Ġgáº¯n": 2136,
      "mÃª": 2137,
      "Ġchá»©": 2138,
      "Ġá»§": 2139,
      "Ġno": 2140,
      "ĠkÃ¨": 2141,
      "khÃŃ": 2142,
      "ell": 2143,
      "Ġcup": 2144,
      "ĠnÃ³ng": 2145,
      "Ġchiáº¿m": 2146,
      "Ġtruy": 2147,
      "bá»ı": 2148,
      "sÃ¡ng": 2149,
      "Ġaustr": 2150,
      "má»Ľi": 2151,
      "Ġhá»įp": 2152,
      "Ġquáº§n": 2153,
      "ions": 2154,
      "Ġmc": 2155,
      "bÃło": 2156,
      "ĠÄĳá»Ĺ": 2157,
      "Ġtá»ķn": 2158,
      "háº¿t": 2159,
      "Ġnot": 2160,
      "ĠcÄĥng": 2161,
      "Ġhuyáº¿t": 2162,
      "Ġsol": 2163,
      "quáº£n": 2164,
      "Ġgoogle": 2165,
      "ack": 2166,
      "Ġgan": 2167,
      "mart": 2168,
      "há»ĵi": 2169,
      "Ġphi": 2170,
      "ÌĤÌģ": 2171,
      "Ġtáº¿": 2172,
      "hu": 2173,
      "ab": 2174,
      "ist": 2175,
      "Äĳá»§": 2176,
      "hÃł": 2177,
      "Ġgiá»ıi": 2178,
      "Ġnghi": 2179,
      "chá»§ng": 2180,
      "ĠÄĳÃ³n": 2181,
      "Ġsam": 2182,
      "giáº£n": 2183,
      "Ġcá»±": 2184,
      "Ġshow": 2185,
      "chá»ĵng": 2186,
      "tá»©c": 2187,
      "cs": 2188,
      "ĠbiÃªn": 2189,
      "Ġtung": 2190,
      "Ġaustralia": 2191,
      "Ġcn": 2192,
      "ĠtháºŃn": 2193,
      "Ġcáº§m": 2194,
      "Ġháº¡ng": 2195,
      "ul": 2196,
      "luáºŃt": 2197,
      "Ġcháº¥p": 2198,
      "Ġ6": 2199,
      "kháº¥u": 2200,
      "tÆ°á»Ľng": 2201,
      "ĠkhÃ¡nh": 2202,
      "ĠÄĳÃ¢u": 2203,
      "cáºŃp": 2204,
      "Ġdinh": 2205,
      "Ġ20": 2206,
      "²i": 2207,
      "Ġcháº¥m": 2208,
      "cÃłng": 2209,
      "Ġq": 2210,
      "má»ģm": 2211,
      "Ġtáº·ng": 2212,
      "ĠhÆ°Æ¡ng": 2213,
      "mai": 2214,
      "Ġnhi": 2215,
      "Ġbiá»ĩn": 2216,
      "Ġpháº¡t": 2217,
      "biá»ĥu": 2218,
      "ĠÄĳÃ´": 2219,
      "ars": 2220,
      "kháº£o": 2221,
      "thiá»ĩu": 2222,
      "ĠkÃ¨m": 2223,
      "Ġkháº©u": 2224,
      "chiáº¿n": 2225,
      "áºŃc": 2226,
      "ĠkÃ©m": 2227,
      "hiá»ĥu": 2228,
      "Ġthá»©c": 2229,
      "ĠsÃºt": 2230,
      "ĠmÃ³n": 2231,
      "Ġká»ĭch": 2232,
      "ĠcáºŃp": 2233,
      "ngoÃ¡i": 2234,
      "Ã©p": 2235,
      "ĠtÃ´n": 2236,
      "niá»ĩm": 2237,
      "Ġvietnam": 2238,
      "Ġngá»¯": 2239,
      "Ġbá»¯a": 2240,
      "ĠxÆ°Æ¡ng": 2241,
      "ct": 2242,
      "onal": 2243,
      "ymp": 2244,
      "ĠquÃª": 2245,
      "Ġgu": 2246,
      "há»ıi": 2247,
      "Ġit": 2248,
      "chá»īnh": 2249,
      "xÃ£": 2250,
      "máº¡i": 2251,
      "Ġcoi": 2252,
      "ĠÃ¡nh": 2253,
      "rame": 2254,
      "Ġhá»Ļ": 2255,
      "Ġser": 2256,
      "me": 2257,
      "line": 2258,
      "Äĳáº³ng": 2259,
      "thuáºŃn": 2260,
      "igh": 2261,
      "Ġhá»¯u": 2262,
      "Ġá»§ng": 2263,
      "cá»ĳ": 2264,
      "khÃºc": 2265,
      "Ġdá»«ng": 2266,
      "Ġiframe": 2267,
      "ina": 2268,
      "ames": 2269,
      "Ġlá»Ĺi": 2270,
      "Ġna": 2271,
      "Ã³t": 2272,
      "Ġkhoáº»": 2273,
      "Ġub": 2274,
      "Ġsá»£": 2275,
      "láº¯ng": 2276,
      "khÃ¡ch": 2277,
      "ĠkÃª": 2278,
      "á»ıi": 2279,
      "khoáº£n": 2280,
      "ĠrÃºt": 2281,
      "22": 2282,
      "ĠbÄĥng": 2283,
      "khuáº©n": 2284,
      "kinh": 2285,
      "Äĳa": 2286,
      "Ġtháº£o": 2287,
      "dáº¡ng": 2288,
      "Ġhe": 2289,
      "cá»¥": 2290,
      "end": 2291,
      "Ġmiá»ģn": 2292,
      "ĠngÃ´n": 2293,
      "na": 2294,
      "Ġtháº©m": 2295,
      "cup": 2296,
      "sÆ¡n": 2297,
      "ĠthÄĥm": 2298,
      "ĠhÃ´n": 2299,
      "Ġhar": 2300,
      "Äĳáº¥t": 2301,
      "Ġof": 2302,
      "Ġbuá»ĵn": 2303,
      "ĠÄĳÃ¬nh": 2304,
      "Ġháº¥p": 2305,
      "um": 2306,
      "ĠdÃ¢y": 2307,
      "ĠtiÃªn": 2308,
      "Ġgiá»įng": 2309,
      "Ġtáº¥m": 2310,
      "Ġvov": 2311,
      "gÃ³p": 2312,
      "tuá»ķi": 2313,
      "Ġolymp": 2314,
      "nhi": 2315,
      "ĠyÃªn": 2316,
      "ĠcÆ°á»Ŀi": 2317,
      "ĠsÃ¡t": 2318,
      "Ġtáº¿t": 2319,
      "Ġdáº¡ng": 2320,
      "Ġubnd": 2321,
      "Ġquen": 2322,
      "Ġdá»©t": 2323,
      "Ġsá»¯a": 2324,
      "quen": 2325,
      "háº¡i": 2326,
      "ona": 2327,
      "chá»ĳng": 2328,
      "Ġháº¡t": 2329,
      "Ġkhung": 2330,
      "ite": 2331,
      "cÃ²n": 2332,
      "ĠthuÃ½": 2333,
      "ĠgÆ°Æ¡ng": 2334,
      "Ġchá»Ĺ": 2335,
      "Ġgiáº£": 2336,
      "trá»Ŀi": 2337,
      "Ġsupp": 2338,
      "ane": 2339,
      "Ġquá»¹": 2340,
      "tá»ı": 2341,
      "ĠÄĳá»©a": 2342,
      "Ġcuá»ĳn": 2343,
      "Ġthuá»·": 2344,
      "Ġis": 2345,
      "ĠthuáºŃn": 2346,
      "á»Ļp": 2347,
      "Ġsupport": 2348,
      "Ġcá»±u": 2349,
      "Ġsing": 2350,
      "Ġbáº§u": 2351,
      "ve": 2352,
      "wser": 2353,
      "máºŃt": 2354,
      "lÆ°á»£c": 2355,
      "Ġbá»¥ng": 2356,
      "ĠvÃµ": 2357,
      "ĠngÆ°á»£c": 2358,
      "Ġps": 2359,
      "Ġrob": 2360,
      "chÃº": 2361,
      "Ġmess": 2362,
      "ate": 2363,
      "uá»ķi": 2364,
      "Ġtuá»³": 2365,
      "ĠbáºŃc": 2366,
      "Ġbrowser": 2367,
      "Ġchamp": 2368,
      "Ġquá»³nh": 2369,
      "Ġthcs": 2370,
      "Ġcar": 2371,
      "Ġnáº¯m": 2372,
      "ĠthÃº": 2373,
      "dáº¡y": 2374,
      "máº½": 2375,
      "Ġphan": 2376,
      "Ġmal": 2377,
      "Ġphá»©c": 2378,
      "hoÃłng": 2379,
      "ĠtrÃºng": 2380,
      "Ġxung": 2381,
      "Ġmáº¡ch": 2382,
      "Ġlá»ĳi": 2383,
      "Ġchá»¯a": 2384,
      "long": 2385,
      "Ġinternet": 2386,
      "ene": 2387,
      "ĠloÃłi": 2388,
      "Ġtáº¡p": 2389,
      "váº»": 2390,
      "ngÃłnh": 2391,
      "táº¡p": 2392,
      "ĠphÃ©p": 2393,
      "Ġmessi": 2394,
      "hÃ¨": 2395,
      "Ġchampions": 2396,
      "nhÆ°á»£ng": 2397,
      "Ġkhen": 2398,
      "vent": 2399,
      "tá»«": 2400,
      "mÃ¡y": 2401,
      "Äĳá»ĵ": 2402,
      "Ġláº«n": 2403,
      "Ġcháº©n": 2404,
      "Ġmáº§m": 2405,
      "Ġsmart": 2406,
      "suáº¥t": 2407,
      "Ġweb": 2408,
      "ĠgiÃłu": 2409,
      "ĠÆ°á»Ľc": 2410,
      "Ġgáº¥p": 2411,
      "Ġnháº¯c": 2412,
      "ngÃły": 2413,
      "ĠdÅ©ng": 2414,
      "ĠÄĳÃłi": 2415,
      "Ġbra": 2416,
      "Ġgh": 2417,
      "ĠÄĳen": 2418,
      "Ġtá»ī": 2419,
      "rá»Ļng": 2420,
      "Ġcá»±c": 2421,
      "Ġcamera": 2422,
      "ran": 2423,
      "ĠkhuÃ´n": 2424,
      "apore": 2425,
      "Ġel": 2426,
      "láº¡c": 2427,
      "Ġloáº¡t": 2428,
      "ester": 2429,
      "ĠchÃło": 2430,
      "ĠthÃ´i": 2431,
      "ail": 2432,
      "Ġsingapore": 2433,
      "Ġed": 2434,
      "ma": 2435,
      "Ġolympic": 2436,
      "Äĳá»©c": 2437,
      "ĠsÃ³ng": 2438,
      "our": 2439,
      "mi": 2440,
      "ĠthÃºc": 2441,
      "máº¯n": 2442,
      "all": 2443,
      "pháºŃn": 2444,
      "Ġvinh": 2445,
      "ford": 2446,
      "Ġtra": 2447,
      "Ġnguyá»ĩn": 2448,
      "ĠphÃº": 2449,
      "20": 2450,
      "ĠvÆ°Æ¡ng": 2451,
      "ation": 2452,
      "ventus": 2453,
      "Ġrau": 2454,
      "chá»ĭ": 2455,
      "Ġronal": 2456,
      "jaer": 2457,
      "tiá»ĩn": 2458,
      "ĠÄĳeo": 2459,
      "hÆ°Æ¡ng": 2460,
      "loáº¡n": 2461,
      "ngáº¡i": 2462,
      "ĠbÃŃ": 2463,
      "Ġdá»ĭ": 2464,
      "má»¹": 2465,
      "Ġjuventus": 2466,
      "Ġfc": 2467,
      "sa": 2468,
      "Ġbá»ĳi": 2469,
      "Ġviettel": 2470,
      "Ġsolsk": 2471,
      "Ġtrá»ĭ": 2472,
      "Ġts": 2473,
      "ĠcÆ¡n": 2474,
      "Ġte": 2475,
      "Ġpin": 2476,
      "lÃ¢m": 2477,
      "Ġdung": 2478,
      "hoáº¡": 2479,
      "rÃłng": 2480,
      "Ġme": 2481,
      "Ġat": 2482,
      "lÃłm": 2483,
      "ays": 2484,
      "ĠvÃ¡y": 2485,
      "bo": 2486,
      "Ġbuá»Ļc": 2487,
      "Ġ8": 2488,
      "Ġtháº³ng": 2489,
      "Ġkhoáº£n": 2490,
      "ĠgÃ³c": 2491,
      "ĠÄĳÃ¡m": 2492,
      "ame": 2493,
      "Ġtá»Ŀ": 2494,
      "ĠtÃºi": 2495,
      "Ġsolskjaer": 2496,
      "ĠvÃ¢n": 2497,
      "ngÅ©": 2498,
      "huyáº¿t": 2499,
      "ĠviÃªn": 2500,
      "Ġliá»ĩu": 2501,
      "Ġkháº¯c": 2502,
      "Ġbá»ĳn": 2503,
      "Ġbo": 2504,
      "ĠcháºŃm": 2505,
      "Ġmá»ĩt": 2506,
      "Ġxáº¥u": 2507,
      "ĠÄĳam": 2508,
      "non": 2509,
      "ĠdÆ°á»£c": 2510,
      "khÃŃch": 2511,
      "ĵn": 2512,
      "ico": 2513,
      "trá»¥": 2514,
      "Ġtri": 2515,
      "Ġad": 2516,
      "cho": 2517,
      "Ġá»ĳng": 2518,
      "ĠlÆ°á»Ľi": 2519,
      "cÃ´": 2520,
      "ĠtÃ³c": 2521,
      "ut": 2522,
      "ĠphÃ¡": 2523,
      "nguyá»ĩn": 2524,
      "Ġná»Ļp": 2525,
      "táºŃt": 2526,
      "com": 2527,
      "táº¯c": 2528,
      "áº¥c": 2529,
      "iss": 2530,
      "Ġpsg": 2531,
      "Äĳáº©y": 2532,
      "ĠÄĳoáº¡n": 2533,
      "ĠphÆ°á»£ng": 2534,
      "ĠphÆ°á»Ŀng": 2535,
      "de": 2536,
      "Ġkg": 2537,
      "Ġngá»±c": 2538,
      "Ġfan": 2539,
      "cuá»Ļc": 2540,
      "tte": 2541,
      "Æ°á»£u": 2542,
      "ĠbÃły": 2543,
      "ci": 2544,
      "ood": 2545,
      "cung": 2546,
      "iá»ĩng": 2547,
      "Ġsamsung": 2548,
      "ĠphÃ³ng": 2549,
      "ĠrÆ°á»£u": 2550,
      "ĠtrÆ°Æ¡ng": 2551,
      "Ã©o": 2552,
      "Ġngá»«ng": 2553,
      "Ġronaldo": 2554,
      "Ġchuá»Ĺi": 2555,
      "amin": 2556,
      "gá»įi": 2557,
      "Ġaf": 2558,
      "khi": 2559,
      "cá»Ļng": 2560,
      "hÃ¬n": 2561,
      "trÃºc": 2562,
      "hÃ³i": 2563,
      "Ġpar": 2564,
      "chÆ°Æ¡ng": 2565,
      "ĠchÃŃ": 2566,
      "Ġnha": 2567,
      "ĠbÃ¡nh": 2568,
      "Ġsáº¡ch": 2569,
      "Ġkháº¯p": 2570,
      "thÆ¡": 2571,
      "Ġnháº¯n": 2572,
      "Ġcal": 2573,
      "quanh": 2574,
      "Ġvn": 2575,
      "Ġthá»ĭt": 2576,
      "hoa": 2577,
      "Ġarsen": 2578,
      "toáº£": 2579,
      "Ġchip": 2580,
      "ick": 2581,
      "tÄ©nh": 2582,
      "Ġgala": 2583,
      "duy": 2584,
      "Ġrobot": 2585,
      "agl": 2586,
      "vÃ¢n": 2587,
      "lá»¥c": 2588,
      "Ġ7": 2589,
      "Ġnghá»ĭ": 2590,
      "nham": 2591,
      "Æ°Æ¡i": 2592,
      "tv": 2593,
      "mÃ¬nh": 2594,
      "ĠghÃ©p": 2595,
      "Ġtháº¡c": 2596,
      "lÆ°u": 2597,
      "ĠmÆ¡": 2598,
      "ley": 2599,
      "Ġmy": 2600,
      "Ġcm": 2601,
      "má»¥c": 2602,
      "Ġsá»Ńa": 2603,
      "cá»Ńa": 2604,
      "sÃ³ng": 2605,
      "Ġarsenal": 2606,
      "trÃº": 2607,
      "ĠnghÃ¬n": 2608,
      "ķng": 2609,
      "Ġsáº¯c": 2610,
      "ĠkhuyÃªn": 2611,
      "Ġcháº·t": 2612,
      "Ġbáº¡ch": 2613,
      "Ġsmartphone": 2614,
      "gen": 2615,
      "Ġlá»Ļ": 2616,
      "tuá»ĩ": 2617,
      "ix": 2618,
      "Ġbang": 2619,
      "á»ĭa": 2620,
      "Ġtháº»": 2621,
      "ork": 2622,
      "ĠlÃłng": 2623,
      "Ġmil": 2624,
      "ná»¯a": 2625,
      "ĠbÃ¢y": 2626,
      "ĠthuÃª": 2627,
      "ers": 2628,
      "yo": 2629,
      "cá»Ń": 2630,
      "ain": 2631,
      "Ġláº¡nh": 2632,
      "esia": 2633,
      "Ġviá»ħn": 2634,
      "nÃły": 2635,
      "láº½": 2636,
      "Ġkiá»ĥu": 2637,
      "ttenham": 2638,
      "ĠÄĳÃ²i": 2639,
      "Ġvin": 2640,
      "ĠrÆ¡i": 2641,
      "Ġchá»£": 2642,
      "máº¡ng": 2643,
      "hn": 2644,
      "ĠhÆ¡i": 2645,
      "Ġtottenham": 2646,
      "háº¥p": 2647,
      "Ġgá»ĳc": 2648,
      "chá»¯": 2649,
      "enn": 2650,
      "Ġhiáº¿m": 2651,
      "donesia": 2652,
      "Ġhagl": 2653,
      "Ġxong": 2654,
      "Äĳáº·t": 2655,
      "trÃ¡ch": 2656,
      "lor": 2657,
      "ĠngÃ´": 2658,
      "Ġgalaxy": 2659,
      "di": 2660,
      "Ġindonesia": 2661,
      "Ġthoáº£": 2662,
      "kháº¯c": 2663,
      "Ġsars": 2664,
      "xu": 2665,
      "ĠbÃ¹ng": 2666,
      "ĠÄĳÃłm": 2667,
      "ae": 2668,
      "chÃ¢n": 2669,
      "Äĳá»¡": 2670,
      "hÃ´i": 2671,
      "Ġrá»ĳi": 2672,
      "kháº©u": 2673,
      "báºŃt": 2674,
      "Ľp": 2675,
      "mÃ¡u": 2676,
      "Ġháº¹n": 2677,
      "ĠkiÃªn": 2678,
      "Ġkiáº¿m": 2679,
      "ep": 2680,
      "Ġonline": 2681,
      "kÃª": 2682,
      "da": 2683,
      "Ġná»Ńa": 2684,
      "ft": 2685,
      "ĠhÃºt": 2686,
      "Ġpo": 2687,
      "ĠquÃªn": 2688,
      "Ġhuaw": 2689,
      "Ġhuawei": 2690,
      "ĠhoÃłi": 2691,
      "sáº¡n": 2692,
      "giao": 2693,
      "Ġemail": 2694,
      "ÄĳÃŃch": 2695,
      "nghiÃªn": 2696,
      "Ġtiá»ģm": 2697,
      "Ġphá»ıng": 2698,
      "ÄĳÆ°Æ¡ng": 2699,
      "Ġtá»©c": 2700,
      "ĠthÆ¡": 2701,
      "Äĳiá»ģu": 2702,
      "Ġprem": 2703,
      "ÌĤÌĢ": 2704,
      "Ġtrá»£": 2705,
      "aysia": 2706,
      "Ġrá»Ńa": 2707,
      "tháº³ng": 2708,
      "ĠthÃ³i": 2709,
      "ĠvÄ©nh": 2710,
      "ĠkhÃ³c": 2711,
      "Ġ9": 2712,
      "xuÃ¢n": 2713,
      "Ġthoáº£i": 2714,
      "ĠsÃłi": 2715,
      "Ġmalaysia": 2716,
      "mÃ¡i": 2717,
      "Ġláº¯m": 2718,
      "Ġcháº¡m": 2719,
      "Ġváº»": 2720,
      "tÃŃn": 2721,
      "ĠhÆ°ng": 2722,
      "á»©a": 2723,
      "buá»Ļc": 2724,
      "zil": 2725,
      "Ġmic": 2726,
      "ĠkÃªnh": 2727,
      "ĠrÄĥng": 2728,
      "loáº¡t": 2729,
      "az": 2730,
      "ele": 2731,
      "Ġquá»·": 2732,
      "ĠÄĳá»ķ": 2733,
      "Äĳáº£o": 2734,
      "ish": 2735,
      "ĠtoÃł": 2736,
      "ĠtÃ¹ng": 2737,
      "Ġmiá»ĩng": 2738,
      "Ġ10": 2739,
      "Ġruá»Ļt": 2740,
      "giáº£i": 2741,
      "Ġtiáº¿c": 2742,
      "sh": 2743,
      "Äĳuá»ķi": 2744,
      "ada": 2745,
      "hÃ©": 2746,
      "Ġvit": 2747,
      "áº«y": 2748,
      "tá»Ļc": 2749,
      "Ġnáº¯ng": 2750,
      "Ġpremier": 2751,
      "ká»·": 2752,
      "dÃ¡ng": 2753,
      "Ġcáº¥u": 2754,
      "Ġyoutu": 2755,
      "ĠÄĳua": 2756,
      "und": 2757,
      "ĠÄĳem": 2758,
      "ĠkÃŃnh": 2759,
      "ĠbÃ¹i": 2760,
      "Ġná»Ĺi": 2761,
      "ĠÄĳoáº¡t": 2762,
      "ĠchÃłng": 2763,
      "phong": 2764,
      "Ġháº±ng": 2765,
      "Ġthuá»µ": 2766,
      "Ġtrá»¥": 2767,
      "gs": 2768,
      "Äĳá»Ļc": 2769,
      "ĠlÃ¡": 2770,
      "ĠhÆ°á»Łng": 2771,
      "Ġluyá»ĩn": 2772,
      "ĠphÃºc": 2773,
      "ast": 2774,
      "ĠkÃªu": 2775,
      "Äĳv": 2776,
      "Ġthuá»³": 2777,
      "Ġcá»Ļt": 2778,
      "á»Ľt": 2779,
      "Ġoxy": 2780,
      "chi": 2781,
      "Ġquanh": 2782,
      "ĠxÃ¢m": 2783,
      "ĠxÃºc": 2784,
      "Ġkháº£o": 2785,
      "ĠmÆ°a": 2786,
      "há»©ng": 2787,
      "ngá»«a": 2788,
      "ĠbáºŃt": 2789,
      "Ġkáº»": 2790,
      "gÃ²n": 2791,
      "ĠcÃºp": 2792,
      "iel": 2793,
      "Ġhc": 2794,
      "ĠcÃł": 2795,
      "Ġgá»£i": 2796,
      "má»ıi": 2797,
      "Ġdáº¡": 2798,
      "chung": 2799,
      "go": 2800,
      "dr": 2801,
      "Ġcor": 2802,
      "ĠdáºŃy": 2803,
      "ká»ĥ": 2804,
      "cel": 2805,
      "Ġmv": 2806,
      "pr": 2807,
      "pa": 2808,
      "ĠtÆ°á»Łng": 2809,
      "Ġdá»ĭp": 2810,
      "ĠgiÃ£n": 2811,
      "ĠÄĳá»«ng": 2812,
      "Ġtáº§ng": 2813,
      "mÃ´": 2814,
      "ĠmáºŃt": 2815,
      "ĠtrÄĥm": 2816,
      "Äĳiá»ĥn": 2817,
      "Ġyoutube": 2818,
      "ĠtÃ´": 2819,
      "Ġpl": 2820,
      "ĠÄĳÃŃ": 2821,
      "30": 2822,
      "pe": 2823,
      "ĠtháºŃp": 2824,
      "biáº¿t": 2825,
      "Ġvitamin": 2826,
      "per": 2827,
      "Ġthuyáº¿t": 2828,
      "hÃ¹ng": 2829,
      "thiá»ĥu": 2830,
      "xá»Ń": 2831,
      "ti": 2832,
      "trong": 2833,
      "Ġhuáº¥n": 2834,
      "Ġxá»©": 2835,
      "chÃºng": 2836,
      "Äĳá»£i": 2837,
      "ĠdÆ°": 2838,
      "Ġmicro": 2839,
      "cÆ°": 2840,
      "Ġphá»§": 2841,
      "chá»ĳi": 2842,
      "Ġuá»·": 2843,
      "phÃº": 2844,
      "lÆ°á»Ľi": 2845,
      "ace": 2846,
      "kim": 2847,
      "tháº£i": 2848,
      "ters": 2849,
      "let": 2850,
      "tÃºc": 2851,
      "má»«ng": 2852,
      "Ġtráº¡m": 2853,
      "Ġkm": 2854,
      "ĠtÃŃn": 2855,
      "thÃ¡c": 2856,
      "Ġvá»¡": 2857,
      "§ng": 2858,
      "ĠâĢĺ": 2859,
      "hÃ¨o": 2860,
      "thi": 2861,
      "phá»¥": 2862,
      "inho": 2863,
      "nhá»Ľ": 2864,
      "chá»¯a": 2865,
      "ĠchÃºc": 2866,
      "tim": 2867,
      "ano": 2868,
      "ĠquÃł": 2869,
      "ĳt": 2870,
      "máº¡c": 2871,
      "Ġláº¡c": 2872,
      "duyá»ĩt": 2873,
      "Ġnáº¡n": 2874,
      "Ġinst": 2875,
      "ĠthoÃ¡t": 2876,
      "ÃŃp": 2877,
      "ink": 2878,
      "Ġbrazil": 2879,
      "Ġgiang": 2880,
      "Ã¨n": 2881,
      "ĠgiÃ¢y": 2882,
      "lÃ£": 2883,
      "Ġkháº©n": 2884,
      "ĠquÃ¡n": 2885,
      "ek": 2886,
      "ĠlÃłnh": 2887,
      "ok": 2888,
      "ĠÄĳe": 2889,
      "thá»¥": 2890,
      "ola": 2891,
      "Ġtrá»©ng": 2892,
      "ĠnÃºi": 2893,
      "Ġhá»©a": 2894,
      "hÃ¡t": 2895,
      "Ġclip": 2896,
      "Ġlá»ĩ": 2897,
      "ĠtÆ°Æ¡i": 2898,
      "Ġmáº¥y": 2899,
      "Ġhá»ģ": 2900,
      "Ġphil": 2901,
      "Ġáº£o": 2902,
      "aly": 2903,
      "Ġlig": 2904,
      "Ġgiáº¥c": 2905,
      "agram": 2906,
      "Ġgs": 2907,
      "dc": 2908,
      "thiá»ĩp": 2909,
      "Ġkhá»Ľp": 2910,
      "bi": 2911,
      "ĠcÆ°á»Ŀng": 2912,
      "Ġáº¥m": 2913,
      "Ġgame": 2914,
      "Ġmin": 2915,
      "lá»įc": 2916,
      "tuáº¥n": 2917,
      "Ġtru": 2918,
      "ĠnÃªu": 2919,
      "thÃ¡ch": 2920,
      "nga": 2921,
      "su": 2922,
      "Ġvo": 2923,
      "ĠphÃª": 2924,
      "Ġwebs": 2925,
      "Ġche": 2926,
      "tho": 2927,
      "Ġpog": 2928,
      "tein": 2929,
      "ĠtÃº": 2930,
      "náº¡n": 2931,
      "ĠtrÃł": 2932,
      "Ġpogba": 2933,
      "orn": 2934,
      "Ġcháº£y": 2935,
      "vá»Ŀi": 2936,
      "ĠnÃ©t": 2937,
      "ĠlÃ¡i": 2938,
      "tÄĥng": 2939,
      "Ġuy": 2940,
      "Ãºa": 2941,
      "Ġbi": 2942,
      "Äĳá»ĭa": 2943,
      "Ġti": 2944,
      "phÃ¡n": 2945,
      "Ġkhá»§ng": 2946,
      "Ġnáº¥u": 2947,
      "giáº£m": 2948,
      "Ġwebsite": 2949,
      "xáº¿p": 2950,
      "Äĳá»Ľi": 2951,
      "Ġtá»ĵn": 2952,
      "Ġ_": 2953,
      "Ġtráº§m": 2954,
      "Ġdáº§u": 2955,
      "ĠÄĳáº§m": 2956,
      "Ġchá»¥c": 2957,
      "bÃ¡c": 2958,
      "Ġhoáº¡": 2959,
      "Ġfor": 2960,
      "liá»ĩt": 2961,
      "ĠthÃ¡ch": 2962,
      "ĠÄĳÃ¨": 2963,
      "Ġmiss": 2964,
      "ĠdÃłn": 2965,
      "Ġhuyá»ģn": 2966,
      "my": 2967,
      "Ġsá»ĳc": 2968,
      "ĠÃ´n": 2969,
      "ká»ĭch": 2970,
      "á»§i": 2971,
      "Ġkhoe": 2972,
      "age": 2973,
      "ÌĽÌ£": 2974,
      "Ġtá»ĳ": 2975,
      "Ġvá»¯ng": 2976,
      "dÃ¹ng": 2977,
      "ĠgiÆ°á»Ŀng": 2978,
      "ĠsÃ´ng": 2979,
      "ĠlÆ°ng": 2980,
      "trai": 2981,
      "angel": 2982,
      "Ġliv": 2983,
      "Ġim": 2984,
      "ĠtÃ¡o": 2985,
      "Ġli": 2986,
      "Ġpgs": 2987,
      "thÆ°á»Ľc": 2988,
      "Ġac": 2989,
      "Ġcá»ķng": 2990,
      "Ġinstagram": 2991,
      "yÃªn": 2992,
      "hÃło": 2993,
      "ĠÄĳá»īnh": 2994,
      "tÃ´": 2995,
      "ĠsÄĥn": 2996,
      "khÃ¡m": 2997,
      "Ġtw": 2998,
      "Ġgol": 2999,
      "Ġliá»ģn": 3000,
      "Ġtá»©": 3001,
      "Ġcr": 3002,
      "Ġlon": 3003,
      "Ġnhá»ĭp": 3004,
      "Ġhá»©ng": 3005,
      "ĠtrÃ´ng": 3006,
      "Ġdan": 3007,
      "ĠtuÃ¢n": 3008,
      "ines": 3009,
      "Ġvan": 3010,
      "ĠcÃłi": 3011,
      "ĠnghÃ¨o": 3012,
      "tre": 3013,
      "ĠxuyÃªn": 3014,
      "dÅ©ng": 3015,
      "Ġvs": 3016,
      "ĠgiÃł": 3017,
      "ĠÄĳáº£o": 3018,
      "Ġngang": 3019,
      "Ġphá»ĳ": 3020,
      "Ġnews": 3021,
      "Ġgá»¡": 3022,
      "Ġxinh": 3023,
      "vid": 3024,
      "ĠhÃłm": 3025,
      "Ġtrá»Ŀi": 3026,
      "Ġngo": 3027,
      "má»Ļt": 3028,
      "chá»ĭu": 3029,
      "land": 3030,
      "Ġer": 3031,
      "ĠsÃłn": 3032,
      "ĠcÆ°á»Ľi": 3033,
      "Ġben": 3034,
      "Ġgháº¿": 3035,
      "phi": 3036,
      "Ġtá»ı": 3037,
      "du": 3038,
      "ipp": 3039,
      "Ġsuáº¥t": 3040,
      "há»ĵng": 3041,
      "Ġkia": 3042,
      "Ġpau": 3043,
      "Ġchiáº¿u": 3044,
      "khÃ´ng": 3045,
      "khoÃ¡": 3046,
      "ĠthÆ°á»Łng": 3047,
      "Æ°á»Ŀn": 3048,
      "Ġhiá»ģn": 3049,
      "ass": 3050,
      "kiá»ĩm": 3051,
      "19": 3052,
      "ice": 3053,
      "tráºŃn": 3054,
      "Ã£ng": 3055,
      "ĠdÃ£": 3056,
      "van": 3057,
      "Ġtá»¥": 3058,
      "Ġchinh": 3059,
      "Ġgian": 3060,
      "ĠgiÃły": 3061,
      "Ġns": 3062,
      "Ġfpt": 3063,
      "ĠkÃŃn": 3064,
      "táº¥t": 3065,
      "ĠtrÆ°a": 3066,
      "min": 3067,
      "Ġper": 3068,
      "Ġtph": 3069,
      "are": 3070,
      "áº³n": 3071,
      "bao": 3072,
      "ĠchÃ³": 3073,
      "Äĳiá»ĩu": 3074,
      "Ġuae": 3075,
      "thuyáº¿t": 3076,
      "ĠkhÃ´": 3077,
      "Ġlá»įc": 3078,
      "ris": 3079,
      "Ġfu": 3080,
      "50": 3081,
      "ll": 3082,
      "Ġtphcm": 3083,
      "ke": 3084,
      "chÃ¢u": 3085,
      "Ġke": 3086,
      "Ġlondon": 3087,
      "ĠÄĳu": 3088,
      "ka": 3089,
      "tc": 3090,
      "Ġjohn": 3091,
      "Ġiel": 3092,
      "ĠrÃ¨n": 3093,
      "ney": 3094,
      "vinh": 3095,
      "Ġalex": 3096,
      "Ġielts": 3097,
      "ĠtÆ°á»Ŀng": 3098,
      "ĠcÆ°": 3099,
      "hÃ²": 3100,
      "Ġcanada": 3101,
      "ĠbÃ¹": 3102,
      "Ġab": 3103,
      "Ġkhá»ķng": 3104,
      "Ġmat": 3105,
      "Ġbl": 3106,
      "khá»ķ": 3107,
      "ĠchÃ¡y": 3108,
      "Ġmilan": 3109,
      "gh": 3110,
      "phá»ĳi": 3111,
      "Ġbá»ģn": 3112,
      "Ġvietnamnet": 3113,
      "Ġlá»įt": 3114,
      "ĠlÃłn": 3115,
      "Ġtan": 3116,
      "ĠduyÃªn": 3117,
      "Äĳi": 3118,
      "Ġnháº£y": 3119,
      "va": 3120,
      "ĠÄĳáºŃu": 3121,
      "ÌĽÌģ": 3122,
      "tina": 3123,
      "Ġsea": 3124,
      "táº§ng": 3125,
      "Äĳá»ı": 3126,
      "táº£": 3127,
      "Ġhiáº¿n": 3128,
      "Ġ11": 3129,
      "Ġtáº£i": 3130,
      "Ġste": 3131,
      "iáº¿ng": 3132,
      "Ġgre": 3133,
      "háº£i": 3134,
      "ivers": 3135,
      "ÄĳÃ³n": 3136,
      "loan": 3137,
      "Ġwh": 3138,
      "Ġthan": 3139,
      "lá»Ńa": 3140,
      "Ġcntt": 3141,
      "ĠcÆ¡m": 3142,
      "ki": 3143,
      "wood": 3144,
      "ÄĳÃło": 3145,
      "Ġlee": 3146,
      "Ġlá»Ĺ": 3147,
      "pu": 3148,
      "ero": 3149,
      "dÃły": 3150,
      "vÃłng": 3151,
      "trá»¯": 3152,
      "Ġblu": 3153,
      "iáº¿p": 3154,
      "Ġstar": 3155,
      "ĠÄĳan": 3156,
      "ens": 3157,
      "ashi": 3158,
      "ÄĳÃ´ng": 3159,
      "Ġgr": 3160,
      "ĠÃª": 3161,
      "tháºŃt": 3162,
      "trÆ°Æ¡ng": 3163,
      "binh": 3164,
      "Ġbá»ĵ": 3165,
      "Ġandro": 3166,
      "Ġtha": 3167,
      "lÆ°á»£t": 3168,
      "láº§m": 3169,
      "Ġsc": 3170,
      "Ġtrá»įn": 3171,
      "up": 3172,
      "chÃºt": 3173,
      "Ġkhuáº©n": 3174,
      "ĠbÃ©o": 3175,
      "ÌĽÌĢ": 3176,
      "ĠthÄĥng": 3177,
      "ĠbÃ¡ch": 3178,
      "phÃ³": 3179,
      "Ġbáº¡c": 3180,
      "nhiÃªu": 3181,
      "Ġchá»§ng": 3182,
      "thÃŃ": 3183,
      "dÆ°á»£c": 3184,
      "ÌĨ": 3185,
      "Ġbá»ģ": 3186,
      "Ġchá»īnh": 3187,
      "Ġmark": 3188,
      "cháº·n": 3189,
      "Ġcá»¥m": 3190,
      "Ġninh": 3191,
      "ĠdÃŃnh": 3192,
      "vÃłi": 3193,
      "ÌĤÌī": 3194,
      "ngá»§": 3195,
      "Ġandroid": 3196,
      "Ġhuá»³nh": 3197,
      "Äĳáº£m": 3198,
      "ÄĳÃ´": 3199,
      "lá»ĵ": 3200,
      "games": 3201,
      "Ġwho": 3202,
      "Ġunivers": 3203,
      "ies": 3204,
      "Ġháº³n": 3205,
      "ĠsÆ°u": 3206,
      "ye": 3207,
      "ĠÄĳáº·ng": 3208,
      "Ġinch": 3209,
      "ĠgÃ³i": 3210,
      "Ġbá»ĵi": 3211,
      "Ġold": 3212,
      "Ġram": 3213,
      "Ġxoay": 3214,
      "mo": 3215,
      "bÃły": 3216,
      "Ġláº¯p": 3217,
      "kÃŃnh": 3218,
      "Ġphilipp": 3219,
      "ef": 3220,
      "Äĳá»ĵn": 3221,
      "Ġngá»įt": 3222,
      "ĠbáºŃn": 3223,
      "500": 3224,
      "Äĳiá»ĩp": 3225,
      "ara": 3226,
      "thÃº": 3227,
      "ight": 3228,
      "ngoáº¡i": 3229,
      "thá»į": 3230,
      "khiá»ĥn": 3231,
      "Ġor": 3232,
      "nhÃłng": 3233,
      "Ġos": 3234,
      "Ġnsnd": 3235,
      "Ġhen": 3236,
      "Ġkhoáº£nh": 3237,
      "lá»Ĺi": 3238,
      "Ġváº¯ng": 3239,
      "by": 3240,
      "Ġham": 3241,
      "Ġgo": 3242,
      "10": 3243,
      "ÄĳÆ¡n": 3244,
      "Ġmba": 3245,
      "Ġláº¡": 3246,
      "Ġmi": 3247,
      "cr": 3248,
      "Ġhuá»·": 3249,
      "tiá»ģn": 3250,
      "soft": 3251,
      "Ġvá»ı": 3252,
      "ĠngÆ°á»¡ng": 3253,
      "Ġprotein": 3254,
      "ĠrÃ¡c": 3255,
      "Ġmuá»Ļn": 3256,
      "ĠdÃ¡m": 3257,
      "ĠthÆ°á»£ng": 3258,
      "ĠtÃ¡ch": 3259,
      "ĠgÃ£": 3260,
      "edu": 3261,
      "Ġmá»¡": 3262,
      "Ġip": 3263,
      "Ġbrun": 3264,
      "quá»µ": 3265,
      "fford": 3266,
      "Ġtráº¡ng": 3267,
      "ĠÃ´m": 3268,
      "ngá»±": 3269,
      "ÄĳÃ¡ng": 3270,
      "mÆ¡": 3271,
      "ĠxoÃ¡": 3272,
      "tháºŃp": 3273,
      "Ġwi": 3274,
      "ĠkhÃ¢u": 3275,
      "Ġváº½": 3276,
      "ĠchiÃªu": 3277,
      "Ġtam": 3278,
      "aland": 3279,
      "ited": 3280,
      "ĠchÃª": 3281,
      "sá»¹": 3282,
      "Ġbit": 3283,
      "ĠmÃ£i": 3284,
      "ĠÄĳÆ°Æ¡ng": 3285,
      "ica": 3286,
      "Ġgb": 3287,
      "Ġky": 3288,
      "cÃ¡nh": 3289,
      "thÃ": 3290,
      "Ġmicrosoft": 3291,
      "hÆ°ng": 3292,
      "Ġchuyá»ģn": 3293,
      "Ġhiáº¿u": 3294,
      "bia": 3295,
      "dáº¯t": 3296,
      "cÃ¡i": 3297,
      "Ġnhan": 3298,
      "Ġhoang": 3299,
      "Ã©m": 3300,
      "ĠcÃ¡t": 3301,
      "kiá»ģu": 3302,
      "kyo": 3303,
      "lÃ£m": 3304,
      "ĠluáºŃn": 3305,
      "Ġpháº¥n": 3306,
      "ga": 3307,
      "ĠhÃło": 3308,
      "bÃł": 3309,
      "ans": 3310,
      "Æ°á»£n": 3311,
      "ÄĳÃ¡o": 3312,
      "Ġtiá»ĩc": 3313,
      "Ġvtv": 3314,
      "Ġitaly": 3315,
      "Ġmas": 3316,
      "Ġsáº¡c": 3317,
      "Ġ12": 3318,
      "Ġtrafford": 3319,
      "ham": 3320,
      "coin": 3321,
      "ale": 3322,
      "Ġtrá»ĳng": 3323,
      "Ġhuáº¿": 3324,
      "tá»ĳc": 3325,
      "thuá»·": 3326,
      "Ġko": 3327,
      "Ġunited": 3328,
      "nhu": 3329,
      "Ġsim": 3330,
      "tá»ħ": 3331,
      "Ġrá»«ng": 3332,
      "ĠÄĳinh": 3333,
      "ardi": 3334,
      "cháº¥p": 3335,
      "gan": 3336,
      "he": 3337,
      "ĠmÃłng": 3338,
      "hoÃłn": 3339,
      "ĠÄĳáº£ng": 3340,
      "ĠsÃłng": 3341,
      "ĠdÆ°á»Ŀng": 3342,
      "Ġmáº£nh": 3343,
      "Ġsi": 3344,
      "Ġtá»Ļi": 3345,
      "bs": 3346,
      "Ġbayern": 3347,
      "ĠÄĳáºŃm": 3348,
      "Ġtráº¥n": 3349,
      "Ġcá»©ng": 3350,
      "gá»¡": 3351,
      "dá»ĭ": 3352,
      "Ġtháº£m": 3353,
      "tok": 3354,
      "press": 3355,
      "riÃªng": 3356,
      "Ġwin": 3357,
      "váº£": 3358,
      "ĠÃ©p": 3359,
      "ide": 3360,
      "ernand": 3361,
      "giÃ¡m": 3362,
      "Ġuniversity": 3363,
      "trÃŃch": 3364,
      "chia": 3365,
      "ĠÄĳá»ĳt": 3366,
      "lÃª": 3367,
      "Ġmon": 3368,
      "ĠxÆ¡": 3369,
      "Ġbá»Ľt": 3370,
      "Ġbv": 3371,
      "Ġdavid": 3372,
      "Ġhong": 3373,
      "trÆ°ng": 3374,
      "ourinho": 3375,
      "Ġval": 3376,
      "gentina": 3377,
      "ĠdÃły": 3378,
      "Ġpv": 3379,
      "Ġváº¥t": 3380,
      "Ġgene": 3381,
      "Ġtrá»ĭnh": 3382,
      "Ġmourinho": 3383,
      "Ġmac": 3384,
      "ĠchÃ¬": 3385,
      "xe": 3386,
      "Ġpháº©m": 3387,
      "ino": 3388,
      "Ġhi": 3389,
      "Ġpaul": 3390,
      "Ġargentina": 3391,
      "ĠnÃłng": 3392,
      "ridge": 3393,
      "lÃ¡": 3394,
      "ĠÄĳáº¯t": 3395,
      "Ġharry": 3396,
      "cháº½": 3397,
      "dy": 3398,
      "ĠsÄ©": 3399,
      "Ġfo": 3400,
      "gu": 3401,
      "Ġvff": 3402,
      "bÃ¡n": 3403,
      "Ġvis": 3404,
      "Ã¨o": 3405,
      "nguyá»ħn": 3406,
      "ĠdÆ°á»¡ng": 3407,
      "vai": 3408,
      "ence": 3409,
      "bÃ³": 3410,
      "ĠcáºŃn": 3411,
      "Ġcáº£n": 3412,
      "Ġhá»įng": 3413,
      "Ġliga": 3414,
      "Ġphilippines": 3415,
      "ĠÄĳÃ¨n": 3416,
      "ler": 3417,
      "Ġgáº¡o": 3418,
      "car": 3419,
      "ĠthÃ´": 3420,
      "ath": 3421,
      "Ġaff": 3422,
      "Äĳáº¡t": 3423,
      "Ġair": 3424,
      "Ġbáº¿n": 3425,
      "chiá»ģu": 3426,
      "Ġlá»©a": 3427,
      "Ġthiá»ĩt": 3428,
      "ĠngÃ£": 3429,
      "nÃ³i": 3430,
      "Ġtv": 3431,
      "asa": 3432,
      "ĠÄĳÃ¹": 3433,
      "nháº¯c": 3434,
      "Ġtrá»«": 3435,
      "Ġwe": 3436,
      "Ġrá»§i": 3437,
      "dows": 3438,
      "nghá»ģ": 3439,
      "qg": 3440,
      "Ġlá»¡": 3441,
      "©t": 3442,
      "Ġráº¯n": 3443,
      "á»±ng": 3444,
      "Ġgolf": 3445,
      "Ġii": 3446,
      "xpress": 3447,
      "ĠgÃł": 3448,
      "Ġcáº©m": 3449,
      "alk": 3450,
      "Ġes": 3451,
      "ĠchÃ¹": 3452,
      "Ġtiá»ĩn": 3453,
      "tráº»": 3454,
      "ony": 3455,
      "Ġhá»Ļp": 3456,
      "Æ°Æ¡n": 3457,
      "nhiá»ĩt": 3458,
      "doáº¡": 3459,
      "nghi": 3460,
      "Ġdai": 3461,
      "Ġsy": 3462,
      "sÃ¡nh": 3463,
      "ĠgiÃ³": 3464,
      "Ġsil": 3465,
      "iano": 3466,
      "mu": 3467,
      "Ġngon": 3468,
      "ĠbÆ¡i": 3469,
      "ĠtÃŃ": 3470,
      "ngÆ¡i": 3471,
      "Ġtáº¯t": 3472,
      "Ġje": 3473,
      "Ġgá»įn": 3474,
      "á»īnh": 3475,
      "ĠmÃ¢y": 3476,
      "ĠnhÃ£n": 3477,
      "Ġná»ĳi": 3478,
      "ĠxÃł": 3479,
      "berg": 3480,
      "Ġtá»ĳn": 3481,
      "hy": 3482,
      "ĠÄĳÃª": 3483,
      "ĠvÄĳv": 3484,
      "Ġjames": 3485,
      "Ġbitcoin": 3486,
      "eta": 3487,
      "ĠbÃ£o": 3488,
      "tÃº": 3489,
      "ná»ģ": 3490,
      "phÃ¢n": 3491,
      "ze": 3492,
      "Ġen": 3493,
      "gá»ĳc": 3494,
      "Ġkhá»Ń": 3495,
      "we": 3496,
      "thai": 3497,
      "Ġfl": 3498,
      "khá»©": 3499,
      "sau": 3500,
      "Ġxá»©ng": 3501,
      "Ġvar": 3502,
      "Ġlá»ĩnh": 3503,
      "sÆ°t": 3504,
      "ĠkhÃ©p": 3505,
      "bum": 3506,
      "ĠnÃºt": 3507,
      "váº¹n": 3508,
      "nhuáºŃn": 3509,
      "21": 3510,
      "xi": 3511,
      "iforn": 3512,
      "ifornia": 3513,
      "Ġmá»ĳc": 3514,
      "Ġthiá»ĩn": 3515,
      "xáº¡": 3516,
      "Ġtáº§n": 3517,
      "Ġ0": 3518,
      "Ġkiá»ĩn": 3519,
      "Ġangel": 3520,
      "Ġbá»Ŀ": 3521,
      "Ġphu": 3522,
      "bÃ©o": 3523,
      "phim": 3524,
      "Ġmun": 3525,
      "Ġbá»ī": 3526,
      "Ġliá»ĩt": 3527,
      "ctor": 3528,
      "Ġtimes": 3529,
      "Ġhiá»ĥn": 3530,
      "Ġráº»": 3531,
      "Ġ17": 3532,
      "ĠdÃ¡ng": 3533,
      "ics": 3534,
      "ena": 3535,
      "Ġcorona": 3536,
      "Ġlau": 3537,
      "Ġcalifornia": 3538,
      "Ġnháº§m": 3539,
      "Ġcáº©n": 3540,
      "quá»³nh": 3541,
      "Ġfernand": 3542,
      "ĠngÃ³n": 3543,
      "Ġtrá»ĵng": 3544,
      "£i": 3545,
      "ĠhoÃ£n": 3546,
      "Ġnon": 3547,
      "Ġthá»¥": 3548,
      "trÃłng": 3549,
      "Ġmá»ģm": 3550,
      "letico": 3551,
      "ĠtrÃłn": 3552,
      "ĠmÃ¡i": 3553,
      "Ġbiá»ĩt": 3554,
      "sÃ³t": 3555,
      "Ġmáº£ng": 3556,
      "ÄĳÃłn": 3557,
      "ĠtrÃŃch": 3558,
      "ĠnsÆ°t": 3559,
      "ĠvÆ°á»Ŀn": 3560,
      "Ġnháº¡y": 3561,
      "ĠkÃŃp": 3562,
      "Ġreu": 3563,
      "Ġatletico": 3564,
      "lÄ©nh": 3565,
      "cÆ°á»Ľi": 3566,
      "Ġdao": 3567,
      "ds": 3568,
      "Ġtik": 3569,
      "rá»ĳi": 3570,
      "Ġhot": 3571,
      "itter": 3572,
      "ea": 3573,
      "Ġasian": 3574,
      "biÃªn": 3575,
      "bÃ¡": 3576,
      "Ġvie": 3577,
      "Ġalbum": 3578,
      "Ã¹a": 3579,
      "Ġfi": 3580,
      "ash": 3581,
      "ovic": 3582,
      "Ġcol": 3583,
      "ec": 3584,
      "ĠcÃºm": 3585,
      "Ġtáº¯c": 3586,
      "pháº¡t": 3587,
      "vy": 3588,
      "celona": 3589,
      "ĠbÆ°u": 3590,
      "á»¥i": 3591,
      "Ġreuters": 3592,
      "biz": 3593,
      "Ġsá»¥": 3594,
      "dáº¥u": 3595,
      "Ġcá»Ŀ": 3596,
      "Ġmed": 3597,
      "ost": 3598,
      "Ġráº¡ng": 3599,
      "ĠmÃ¹i": 3600,
      "sÃ¢u": 3601,
      "tá»¥": 3602,
      "ata": 3603,
      "ĠbÃª": 3604,
      "Ġbáº¡o": 3605,
      "tá»ĵn": 3606,
      "háº¹n": 3607,
      "rÃ£i": 3608,
      "Ġjack": 3609,
      "ru": 3610,
      "Ġchim": 3611,
      "Ġnhá»±a": 3612,
      "Ġthuyá»ģn": 3613,
      "ĠtrÃ¢n": 3614,
      "Ġbarcelona": 3615,
      "Ġtruyá»ĩn": 3616,
      "háº±ng": 3617,
      "ĠÃ¡c": 3618,
      "Ġios": 3619,
      "Ġtwitter": 3620,
      "Ġháº¡i": 3621,
      "Ġsl": 3622,
      "ĠbÃ²": 3623,
      "vo": 3624,
      "Ġap": 3625,
      "Ġváº£i": 3626,
      "ppe": 3627,
      "ike": 3628,
      "Ġmuá»ĳi": 3629,
      "Ġsou": 3630,
      "Ġbruno": 3631,
      "Ġwill": 3632,
      "li": 3633,
      "ner": 3634,
      "sáº¯m": 3635,
      "ĠmÆ°á»£n": 3636,
      "Ġsn": 3637,
      "Ġfran": 3638,
      "Ġsk": 3639,
      "Æ°á»¡i": 3640,
      "ĠlÃ£ng": 3641,
      "phÃª": 3642,
      "ĠÄĳáº¥y": 3643,
      "Ġhol": 3644,
      "Ġceo": 3645,
      "ĠchÃºt": 3646,
      "Ġwat": 3647,
      "Ġvisco": 3648,
      "ĠrÃł": 3649,
      "Ġvu": 3650,
      "web": 3651,
      "hÃª": 3652,
      "ymar": 3653,
      "viá»ĩt": 3654,
      "ĠvÆ°Æ¡n": 3655,
      "ngÃ¢n": 3656,
      "Ġlives": 3657,
      "ĠÃ¡n": 3658,
      "cÃ£i": 3659,
      "Ġlá»Ńa": 3660,
      "Ġcá»ĳng": 3661,
      "Ġvua": 3662,
      "Ġax": 3663,
      "Ġ18": 3664,
      "Ġneymar": 3665,
      "Ġmod": 3666,
      "háº£o": 3667,
      "thiÃªn": 3668,
      "Ġbus": 3669,
      "Ġcháº·ng": 3670,
      "Ġtokyo": 3671,
      "vel": 3672,
      "chiáº¿u": 3673,
      "mas": 3674,
      "gÃ¡i": 3675,
      "Ġparis": 3676,
      "ÄĳÃłi": 3677,
      "ngá»£i": 3678,
      "Ġvá»Ł": 3679,
      "lá»Ľp": 3680,
      "Ġ15": 3681,
      "tiá»ĥu": 3682,
      "ko": 3683,
      "thuá»³": 3684,
      "ĠÄĳá»ĩ": 3685,
      "Ġshowbiz": 3686,
      "á»ıng": 3687,
      "ĠquÃ£ng": 3688,
      "ary": 3689,
      "Ġthuáº¿": 3690,
      "ĠÄĳiá»ģn": 3691,
      "áº¹t": 3692,
      "Ġpep": 3693,
      "Ġyo": 3694,
      "oom": 3695,
      "ĠchÃŃn": 3696,
      "Ġmich": 3697,
      "ational": 3698,
      "ym": 3699,
      "hÆ¡i": 3700,
      "Ġnasa": 3701,
      "cá»¥c": 3702,
      "ĠkhÃ´i": 3703,
      "lá»ħ": 3704,
      "Ġafp": 3705,
      "Ġvck": 3706,
      "á»ĳm": 3707,
      "ax": 3708,
      "Ġdel": 3709,
      "máº¯c": 3710,
      "lÆ°Æ¡ng": 3711,
      "ĠsÃ´i": 3712,
      "Ġchá»Ł": 3713,
      "Ġup": 3714,
      "nhá»¯ng": 3715,
      "quÃ½": 3716,
      "phá»ķ": 3717,
      "Ġever": 3718,
      "báº¡ch": 3719,
      "Ã©n": 3720,
      "Ġxi": 3721,
      "ling": 3722,
      "tráº§n": 3723,
      "cÃ¢y": 3724,
      "ven": 3725,
      "Ġtáº¡": 3726,
      "Ġtáº¯m": 3727,
      "vá»¯ng": 3728,
      "giáº£ng": 3729,
      "ael": 3730,
      "Ġthá»ĭnh": 3731,
      "Ġláº¯ng": 3732,
      "Ġher": 3733,
      "ĠvÃ³c": 3734,
      "Ġwest": 3735,
      "Ġafc": 3736,
      "giá»¯": 3737,
      "Ġpho": 3738,
      "ĠtrÃ²n": 3739,
      "Ġngáº¡i": 3740,
      "roup": 3741,
      "Ġmá»ĳt": 3742,
      "ĠkhoÃ¡c": 3743,
      "ĠkhÃ¡t": 3744,
      "wn": 3745,
      "Ġgen": 3746,
      "Ġrober": 3747,
      "Ġtoáº£": 3748,
      "ĠÄĳÃŃnh": 3749,
      "hiáº¿n": 3750,
      "ini": 3751,
      "ĠÄĳiá»ĥn": 3752,
      "Ġtiktok": 3753,
      "bc": 3754,
      "tháº¡ch": 3755,
      "Äĳua": 3756,
      "Ġga": 3757,
      "jo": 3758,
      "Ġkha": 3759,
      "tá»ĩ": 3760,
      "Ġnu": 3761,
      "ngÃ´n": 3762,
      "láº»": 3763,
      "Ġmbappe": 3764,
      "ĠÄĳÃŃch": 3765,
      "trÄĥng": 3766,
      "Ġtá»§": 3767,
      "Ġamaz": 3768,
      "ĠÄĳáºŃp": 3769,
      "bÄĥng": 3770,
      "Ġtech": 3771,
      "Ġid": 3772,
      "Ġyork": 3773,
      "thÃ¹": 3774,
      "ah": 3775,
      "idane": 3776,
      "áº¹o": 3777,
      "hoáº£": 3778,
      "trá»Ļi": 3779,
      "Ġmor": 3780,
      "Ġchuá»Ļt": 3781,
      "Ġdr": 3782,
      "Ġcat": 3783,
      "Ġmag": 3784,
      "tráº£": 3785,
      "Ġsay": 3786,
      "Ġngá»Ļ": 3787,
      "Ġnháº¯m": 3788,
      "ĠtrÃ´i": 3789,
      "Ġzidane": 3790,
      "Ġsun": 3791,
      "chu": 3792,
      "ĠbÃ¡m": 3793,
      "Ġtáº¡ng": 3794,
      "á»Ľn": 3795,
      "ĠgÃ¡nh": 3796,
      "enc": 3797,
      "Ġbáº¥m": 3798,
      "Ġ16": 3799,
      "ĠvÃº": 3800,
      "Ġdá»¥ng": 3801,
      "nai": 3802,
      "ps": 3803,
      "Ġsouth": 3804,
      "Æ°á»Ľt": 3805,
      "trá»«": 3806,
      "tÃłu": 3807,
      "tÃ¡n": 3808,
      "Ġlam": 3809,
      "ĠlÃło": 3810,
      "nhung": 3811,
      "ná»ķ": 3812,
      "Ġmá»ĵ": 3813,
      "trá»±c": 3814,
      "Ä©a": 3815,
      "phÃ³ng": 3816,
      "Ġjus": 3817,
      "Ġná»¥": 3818,
      "cn": 3819,
      "khÃ¡nh": 3820,
      "nexpress": 3821,
      "trá»Ł": 3822,
      "Ġhcv": 3823,
      "ĠphÃ¬": 3824,
      "Ġgiáº¥u": 3825,
      "ngÃło": 3826,
      "aka": 3827,
      "ĠsÃ¡u": 3828,
      "Ġlá»ĵng": 3829,
      "ake": 3830,
      "biá»ĥn": 3831,
      "Ġbtc": 3832,
      "ud": 3833,
      "Ġamazon": 3834,
      "no": 3835,
      "Ġtest": 3836,
      "Ġcdc": 3837,
      "Ġ14": 3838,
      "Ġnáº¥m": 3839,
      "Ġeng": 3840,
      "¥t": 3841,
      "tsal": 3842,
      "Ġfernandes": 3843,
      "Ġtháº¯t": 3844,
      "Ġdá»ĵn": 3845,
      "ĠthuáºŃt": 3846,
      "Ġfutsal": 3847,
      "duyÃªn": 3848,
      "ngá»Ļt": 3849,
      "ves": 3850,
      "Ġná»ĵng": 3851,
      "Ġnano": 3852,
      "ĠgiÃ¡n": 3853,
      "old": 3854,
      "Ġmunich": 3855,
      "ĠmÃª": 3856,
      "cá»ķ": 3857,
      "art": 3858,
      "á»Ļm": 3859,
      "Ġkem": 3860,
      "ield": 3861,
      "yáº¿n": 3862,
      "Ġngá»«a": 3863,
      "ĠtÃŃm": 3864,
      "Ġlá»«a": 3865,
      "Ġex": 3866,
      "mm": 3867,
      "Ġtreo": 3868,
      "tiá»ħn": 3869,
      "thuá»ĳc": 3870,
      "tá»ĳi": 3871,
      "Ġnghiá»ĩp": 3872,
      "ĠmÅ©": 3873,
      "liÃªn": 3874,
      "ĠkhÃºc": 3875,
      "huáº¥n": 3876,
      "báº¡c": 3877,
      "Ġipad": 3878,
      "mund": 3879,
      "Ã²i": 3880,
      "mc": 3881,
      "ĠlÃ£o": 3882,
      "Ġkhuyáº¿t": 3883,
      "áº±n": 3884,
      "Ġblo": 3885,
      "ĠÄĳá»¡": 3886,
      "Ġbáº¡i": 3887,
      "Ġtá»ĩ": 3888,
      "tÃ¡": 3889,
      "Ġtes": 3890,
      "Ġsch": 3891,
      "ĠchÃ¨": 3892,
      "nÃ³ng": 3893,
      "chool": 3894,
      "ĠlÅ©": 3895,
      "ind": 3896,
      "Ġnat": 3897,
      "ana": 3898,
      "ĠsÆ°ng": 3899,
      "ĠvÆ°á»Ľng": 3900,
      "ÄĳÃ£i": 3901,
      "Ġwindows": 3902,
      "15": 3903,
      "chester": 3904,
      "orts": 3905,
      "alth": 3906,
      "Ġgeo": 3907,
      "Ġlos": 3908,
      "Ġbá»¥i": 3909,
      "Ġáº©m": 3910,
      "ĠÄĳÆ°Æ¡": 3911,
      "ĠbÆ¡": 3912,
      "ĠnhiÃªn": 3913,
      "Ġmax": 3914,
      "Ġwal": 3915,
      "cÆ°Æ¡ng": 3916,
      "tÃ¢y": 3917,
      "Ġ19": 3918,
      "cc": 3919,
      "Ġdá»įn": 3920,
      "ĠÄĳáº³ng": 3921,
      "tháºŃn": 3922,
      "lywood": 3923,
      "soi": 3924,
      "ÄĳÃªm": 3925,
      "Ġmen": 3926,
      "Ġleo": 3927,
      "Ġguardi": 3928,
      "bridge": 3929,
      "ĠcÄĳv": 3930,
      "Ġguardiola": 3931,
      "Ġchá»ĳt": 3932,
      "Ãłm": 3933,
      "Ġpol": 3934,
      "ĠtrÆ°á»£t": 3935,
      "ny": 3936,
      "icester": 3937,
      "Ġjord": 3938,
      "ortmund": 3939,
      "Ġáº©n": 3940,
      "ĠÄĳá»©t": 3941,
      "agon": 3942,
      "erna": 3943,
      "Ġthá»§ng": 3944,
      "18": 3945,
      "Ġdortmund": 3946,
      "Ġá»ĵn": 3947,
      "ive": 3948,
      "Ġvnexpress": 3949,
      "Ġleicester": 3950,
      "bon": 3951,
      "Ġww": 3952,
      "istan": 3953,
      "erson": 3954,
      "Ġbom": 3955,
      "Ġbá»ĳc": 3956,
      "ĠtÃª": 3957,
      "les": 3958,
      "á»£n": 3959,
      "bang": 3960,
      "Ġmáº¡n": 3961,
      "Ġplay": 3962,
      "Ġbáº¿": 3963,
      "Ġtháº¥u": 3964,
      "ger": 3965,
      "ná»Ńa": 3966,
      "ĠtÄ©nh": 3967,
      "ya": 3968,
      "Ġset": 3969,
      "Ġnote": 3970,
      "Ã¹m": 3971,
      "vá»ģ": 3972,
      "sá»©": 3973,
      "ĠchÃ©": 3974,
      "ins": 3975,
      "Ġmanchester": 3976,
      "aku": 3977,
      "Ġib": 3978,
      "khang": 3979,
      "Ġseries": 3980,
      "ster": 3981,
      "ĠcÆ°Æ¡ng": 3982,
      "Ġstr": 3983,
      "Ġpf": 3984,
      "ĠtÃ´ng": 3985,
      "má»ĩnh": 3986,
      "Ġráº¡p": 3987,
      "Ġmá»«ng": 3988,
      "vil": 3989,
      "ráº«y": 3990,
      "ĠlÃ´ng": 3991,
      "báº£ng": 3992,
      "ĠÄĳá»£i": 3993,
      "Ġtele": 3994,
      "láº¡": 3995,
      "Ġbáº¯n": 3996,
      "hÃ©o": 3997,
      "Ġrash": 3998,
      "ÄĳÃ¡p": 3999,
      "ĠbÃ£i": 4000,
      "nghe": 4001,
      "Ġver": 4002,
      "que": 4003,
      "Ġquyáº¿n": 4004,
      "bal": 4005,
      "cÃ³": 4006,
      "Ġcolle": 4007,
      "ĠcÃ¡o": 4008,
      "itt": 4009,
      "tháº¥t": 4010,
      "Ġven": 4011,
      "ĠquyÃªn": 4012,
      "Ġtom": 4013,
      "izer": 4014,
      "Ġdon": 4015,
      "háº¡": 4016,
      "Ġsci": 4017,
      "Ġbuá»ĵng": 4018,
      "ĠkiÃªm": 4019,
      "dá»©t": 4020,
      "Ġtrinh": 4021,
      "thá»«a": 4022,
      "thá»ķ": 4023,
      "hoáº£ng": 4024,
      "song": 4025,
      "uk": 4026,
      "cháº£y": 4027,
      "eting": 4028,
      "báº¡": 4029,
      "ther": 4030,
      "Ġbá»Ļt": 4031,
      "ĠphÃ¡o": 4032,
      "Ġkar": 4033,
      "Ġkane": 4034,
      "Ġphun": 4035,
      "xÃ¡": 4036,
      "Ġone": 4037,
      "Ġins": 4038,
      "Ġjenn": 4039,
      "vin": 4040,
      "Ġklo": 4041,
      "ĠngÆ°ng": 4042,
      "Ġtia": 4043,
      "Ġtuyáº¿t": 4044,
      "ĠbÃ´ng": 4045,
      "Ġphiáº¿u": 4046,
      "thÃ´n": 4047,
      "ĠcÃ¡p": 4048,
      "khiáº¿u": 4049,
      "Ġtráº¯c": 4050,
      "Ġhá»ĳ": 4051,
      "Äĳá»Ľn": 4052,
      "alo": 4053,
      "Ġpfizer": 4054,
      "Ġchan": 4055,
      "Ġdaily": 4056,
      "Ġcambridge": 4057,
      "máº¿n": 4058,
      "ĠkhÄĥn": 4059,
      "báº¯t": 4060,
      "rá»Ļn": 4061,
      "Ġhiv": 4062,
      "Ġtriá»ģu": 4063,
      "hÆ°á»Ľc": 4064,
      "Ġmartin": 4065,
      "ĠmÃ¡t": 4066,
      "cÃ¡c": 4067,
      "tráº¥n": 4068,
      "dá»¯": 4069,
      "Ġrashford": 4070,
      "ĠhÃ¡n": 4071,
      "Ġná»ķ": 4072,
      "áº¿m": 4073,
      "Ġsá»©": 4074,
      "ĠlÆ¡": 4075,
      "Ġve": 4076,
      "ĠtrÆ°ng": 4077,
      "ren": 4078,
      "iá»ħu": 4079,
      "nÃ£o": 4080,
      "ĠnÃ´n": 4081,
      "Ã½t": 4082,
      "Ġaxit": 4083,
      "cá»©ng": 4084,
      "won": 4085,
      "á»ĥn": 4086,
      "Ġhollywood": 4087,
      "han": 4088,
      "Ġserie": 4089,
      "ĠvÆ¡": 4090,
      "Æ°á»Ľp": 4091,
      "Ġzing": 4092,
      "lin": 4093,
      "khÃ¡ng": 4094,
      "Ġox": 4095,
      "rá»¡": 4096,
      "Ġasia": 4097,
      "kÃ©m": 4098,
      "Ġsal": 4099,
      "zene": 4100,
      "Ġná»£": 4101,
      "Ġvictor": 4102,
      "ĠÄĳoÃ¡n": 4103,
      "Ġthang": 4104,
      "Ġthao": 4105,
      "Ġngáº¡c": 4106,
      "top": 4107,
      "nhá»Ł": 4108,
      "Ġber": 4109,
      "Ġpa": 4110,
      "tech": 4111,
      "ella": 4112,
      "trinh": 4113,
      "Ġklopp": 4114,
      "Ġ13": 4115,
      "mÃł": 4116,
      "Ġcro": 4117,
      "Ġnet": 4118,
      "láº¡nh": 4119,
      "Ġking": 4120,
      "wan": 4121,
      "Ġmm": 4122,
      "Ġgreen": 4123,
      "uá»ĳi": 4124,
      "ĠtrÃ¹ng": 4125,
      "xa": 4126,
      "Ġsancho": 4127,
      "xh": 4128,
      "Ġpe": 4129,
      "Ġandre": 4130,
      "bur": 4131,
      "mang": 4132,
      "Ġvnpt": 4133,
      "ifa": 4134,
      "Ġtrump": 4135,
      "ĠvÅ©ng": 4136,
      "hÃ³c": 4137,
      "Ġdis": 4138,
      "ĠÄĳÄ©a": 4139,
      "Ġsá»£i": 4140,
      "ĠÄĳuá»ķi": 4141,
      "Ġnor": 4142,
      "mann": 4143,
      "Ġluk": 4144,
      "sá»Ńa": 4145,
      "Ġedu": 4146,
      "Ġsáº¯t": 4147,
      "á»Ĺng": 4148,
      "Ġ100": 4149,
      "nÆ¡i": 4150,
      "vÃło": 4151,
      "ama": 4152,
      "ĠluÃ¢n": 4153,
      "Ġmá»ıng": 4154,
      "bÃ³ng": 4155,
      "ji": 4156,
      "lá»ĩch": 4157,
      "Ġsport": 4158,
      "Ġgra": 4159,
      "ĠmÃºa": 4160,
      "lam": 4161,
      "váºŃn": 4162,
      "ward": 4163,
      "tÃłng": 4164,
      "Ġsel": 4165,
      "Ġeo": 4166,
      "Ġir": 4167,
      "huyá»ģn": 4168,
      "rist": 4169,
      "cáº£n": 4170,
      "uá»·": 4171,
      "Ġthá»ķi": 4172,
      "hÃ©t": 4173,
      "thoáº£ng": 4174,
      "Ġpen": 4175,
      "gÅ©i": 4176,
      "Ġpal": 4177,
      "Ġcamp": 4178,
      "Ġtáº©y": 4179,
      "Ġastra": 4180,
      "ĠgÃ£y": 4181,
      "ss": 4182,
      "tráº£i": 4183,
      "Ġhan": 4184,
      "Ġlá»£n": 4185,
      "Ġtro": 4186,
      "ĠquÃ©t": 4187,
      "Ġsco": 4188,
      "lang": 4189,
      "ĠbÃºt": 4190,
      "Ġcollege": 4191,
      "lao": 4192,
      "ates": 4193,
      "anmar": 4194,
      "int": 4195,
      "Ġwww": 4196,
      "gio": 4197,
      "Ġlá»¥c": 4198,
      "ĠviÃª": 4199,
      "ĠÃºc": 4200,
      "Ġty": 4201,
      "á»ĭn": 4202,
      "ĠÃ¡m": 4203,
      "Ġtháº£": 4204,
      "thá»¥c": 4205,
      "Ġchris": 4206,
      "Ġsg": 4207,
      "Ġpost": 4208,
      "Ġeuropa": 4209,
      "ĠphÃ¹ng": 4210,
      "bile": 4211,
      "ys": 4212,
      "Ġjordan": 4213,
      "Ġstu": 4214,
      "Ġmyanmar": 4215,
      "Ġitalia": 4216,
      "trÃło": 4217,
      "kong": 4218,
      "Ġmel": 4219,
      "láº·ng": 4220,
      "Ġflor": 4221,
      "Ġgea": 4222,
      "Ġcampu": 4223,
      "Ġláº·p": 4224,
      "Ġcampuchia": 4225,
      "ÄĳÄĥng": 4226,
      "Ġcháº·n": 4227,
      "Ġhor": 4228,
      "za": 4229,
      "tri": 4230,
      "Ġlen": 4231,
      "ĠmÃ¢u": 4232,
      "Ġfifa": 4233,
      "Ġlg": 4234,
      "Ġláº¡m": 4235,
      "Ġoscar": 4236,
      "zeneca": 4237,
      "Ġbá»ıng": 4238,
      "ĠniÃªm": 4239,
      "port": 4240,
      "rÅ©": 4241,
      "Äĳá»ĥ": 4242,
      "ĠmÃ©t": 4243,
      "trÃ¡nh": 4244,
      "Ġastrazeneca": 4245,
      "Ġmau": 4246,
      "Ġase": 4247,
      "Ġdem": 4248,
      "tream": 4249,
      "Ġgá»Ĺ": 4250,
      "phan": 4251,
      "Ġthá»ķ": 4252,
      "Ġjose": 4253,
      "Ġhá»ıng": 4254,
      "bin": 4255,
      "ĠlÃ´": 4256,
      "Äĥk": 4257,
      "ning": 4258,
      "Ġmiáº¿ng": 4259,
      "Ġsho": 4260,
      "Ġvá»Ļi": 4261,
      "Ġcáº¥t": 4262,
      "Ġmarketing": 4263,
      "zealand": 4264,
      "Ġhealth": 4265,
      "pl": 4266,
      "than": 4267,
      "chel": 4268,
      "ĠrÃ²": 4269,
      "tino": 4270,
      "kia": 4271,
      "Ġcanh": 4272,
      "Ġcáº¯n": 4273,
      "Ġiran": 4274,
      "Äĳt": 4275,
      "Ġmusk": 4276,
      "mÃ£n": 4277,
      "Ġbáº¿p": 4278,
      "áº«m": 4279,
      "ĠÆ¡i": 4280,
      "ĠcÃ²i": 4281,
      "cá»Ļt": 4282,
      "vÄĳ": 4283,
      "Ġlang": 4284,
      "ĠlÃ²": 4285,
      "ifer": 4286,
      "40": 4287,
      "Ġlai": 4288,
      "Ġdá»±ng": 4289,
      "ha": 4290,
      "Ġyáº¿n": 4291,
      "ika": 4292,
      "tÆ°á»Ŀng": 4293,
      "ĠnhÃ©": 4294,
      "nal": 4295,
      "fl": 4296,
      "Ġlukaku": 4297,
      "Ġmp": 4298,
      "má»±c": 4299,
      "Äĳá»ģn": 4300,
      "Ġbur": 4301,
      "Ġbal": 4302,
      "Ġcáº¯m": 4303,
      "miá»ħn": 4304,
      "ĠÄĳá»ĵn": 4305,
      "Ġthomas": 4306,
      "national": 4307,
      "Ġoff": 4308,
      "Ã¬a": 4309,
      "phiáº¿u": 4310,
      "Ġcá»ĳt": 4311,
      "Ġwei": 4312,
      "áº¯k": 4313,
      "Ġmáº¡c": 4314,
      "ĠthÃ¡o": 4315,
      "Ġali": 4316,
      "huá»·": 4317,
      "ĠchÃ¡n": 4318,
      "pper": 4319,
      "ĠtrÆ°Æ¡": 4320,
      "Ġháº¹p": 4321,
      "hÃ£i": 4322,
      "Ġá»©c": 4323,
      "Ġall": 4324,
      "kÃŃp": 4325,
      "ĠkhoÃ¡ng": 4326,
      "Ġvay": 4327,
      "luá»¹": 4328,
      "Ġbill": 4329,
      "ĠthÃ´n": 4330,
      "má»Ł": 4331,
      "thÃ¡ng": 4332,
      "Ġnv": 4333,
      "Ġtháº¯c": 4334,
      "tÃ¢n": 4335,
      "triá»ĩu": 4336,
      "nuÃ´i": 4337,
      "xÆ°a": 4338,
      "ĠÄĳá»į": 4339,
      "cháº¡m": 4340,
      "Ġasean": 4341,
      "Ġtre": 4342,
      "viet": 4343,
      "ance": 4344,
      "ĠnhÃŃ": 4345,
      "Ġthat": 4346,
      "Ġnghiá»ĩn": 4347,
      "dá»Ļi": 4348,
      "Ġhigh": 4349,
      "hÃłn": 4350,
      "Ġkan": 4351,
      "ĠkhÃ©o": 4352,
      "Ġ30": 4353,
      "mÃłn": 4354,
      "há»ķng": 4355,
      "Ġlink": 4356,
      "ĠÄĳá»ģn": 4357,
      "á»£t": 4358,
      "rÃºt": 4359,
      "Ġpcr": 4360,
      "ĠchÃ³ng": 4361,
      "16": 4362,
      "ĠxÆ°a": 4363,
      "ĠhÃŃ": 4364,
      "Ġmá»ĵi": 4365,
      "ari": 4366,
      "Ġtháº£i": 4367,
      "Ġwol": 4368,
      "Ġcrist": 4369,
      "Ġvisa": 4370,
      "fe": 4371,
      "ander": 4372,
      "máº¡o": 4373,
      "york": 4374,
      "Ġamer": 4375,
      "Ġtang": 4376,
      "Ġfr": 4377,
      "vis": 4378,
      "Ġsá»ıi": 4379,
      "Ġshe": 4380,
      "Ġet": 4381,
      "cáº¥u": 4382,
      "Ġhá»Ł": 4383,
      "ĠbÃº": 4384,
      "Ġgiáº¿t": 4385,
      "ĠlÃ¹i": 4386,
      "Ġbs": 4387,
      "Ġbáº£y": 4388,
      "Ġeverton": 4389,
      "Ġsala": 4390,
      "Ġsen": 4391,
      "Ġres": 4392,
      "thuáº«n": 4393,
      "giÃ£n": 4394,
      "ngu": 4395,
      "giÃ³": 4396,
      "tÃ¡o": 4397,
      "ashing": 4398,
      "tá»ķ": 4399,
      "Ġdáº¡o": 4400,
      "vard": 4401,
      "use": 4402,
      "mÃ£": 4403,
      "Ġvp": 4404,
      "tro": 4405,
      "tÃ¹ng": 4406,
      "men": 4407,
      "máº»": 4408,
      "táº·ng": 4409,
      "Ġjun": 4410,
      "Ġsm": 4411,
      "win": 4412,
      "Ġbrit": 4413,
      "ĠcÄĳ": 4414,
      "uire": 4415,
      "Ġslna": 4416,
      "shi": 4417,
      "ĠhÆ°": 4418,
      "Ã¬n": 4419,
      "Ġthá»£": 4420,
      "bl": 4421,
      "chuyá»ģn": 4422,
      "Ġhaz": 4423,
      "ashington": 4424,
      "ach": 4425,
      "Ġfox": 4426,
      "ĠtrÃº": 4427,
      "Äĥc": 4428,
      "giÃºp": 4429,
      "viá»ħn": 4430,
      "Ġsá»ķ": 4431,
      "thÃ¡p": 4432,
      "Ġgam": 4433,
      "Ġtoáº¡": 4434,
      "há»ĵn": 4435,
      "200": 4436,
      "Ġmá»¥": 4437,
      "Ġhit": 4438,
      "Ġtháº¡ch": 4439,
      "chá»Ĺ": 4440,
      "Ġdaniel": 4441,
      "ĠÆ°a": 4442,
      "11": 4443,
      "Ġkhá»ķ": 4444,
      "ĠtiÃª": 4445,
      "ĠtÃłn": 4446,
      "Ġmaguire": 4447,
      "uis": 4448,
      "Ġarab": 4449,
      "Ġfa": 4450,
      "olog": 4451,
      "ĠÄĳÃ¹i": 4452,
      "Ġcnn": 4453,
      "tai": 4454,
      "Ġque": 4455,
      "ĠchÃ¹m": 4456,
      "den": 4457,
      "hoan": 4458,
      "Æ°á»Ľu": 4459,
      "Ġjennifer": 4460,
      "Ġbia": 4461,
      "ÌĽÌī": 4462,
      "Ġby": 4463,
      "eman": 4464,
      "quÃ¡n": 4465,
      "Ġbá»Ļc": 4466,
      "tráº¯ng": 4467,
      "Ġpháº¿": 4468,
      "Ġdiá»ĩu": 4469,
      "Ġgeor": 4470,
      "Ġdiá»ĩt": 4471,
      "phÆ°á»Ľc": 4472,
      "Ġsalah": 4473,
      "Ġgáº¥u": 4474,
      "Ġchar": 4475,
      "Ġmuá»Ĺi": 4476,
      "ĠhÃŃt": 4477,
      "bÃ©": 4478,
      "Ġnan": 4479,
      "ĠÄĳá»ĳng": 4480,
      "thÄĥm": 4481,
      "Ġplus": 4482,
      "Ġgá»ĳi": 4483,
      "Ġá»ĳm": 4484,
      "Ġcristiano": 4485,
      "báº¯p": 4486,
      "Ġout": 4487,
      "ĠphÃ¡c": 4488,
      "Ġmah": 4489,
      "Ġpet": 4490,
      "ĠÄĳá»ĩm": 4491,
      "Ġquáº¿": 4492,
      "ĠÄĳÃ¢m": 4493,
      "Ġmá»¥n": 4494,
      "Ġtrá»ĳn": 4495,
      "thÃ¡o": 4496,
      "Ġkong": 4497,
      "ĠÆ°": 4498,
      "Ġcá»§ng": 4499,
      "Ġwashington": 4500,
      "Ġcai": 4501,
      "ĠvÄĥc": 4502,
      "ĠbÃŃch": 4503,
      "ida": 4504,
      "ĵi": 4505,
      "Ġjustin": 4506,
      "Ġye": 4507,
      "Ġdy": 4508,
      "ĠÄĳie": 4509,
      "Ġblack": 4510,
      "ghÃ©p": 4511,
      "cáº¡nh": 4512,
      "Ġbrad": 4513,
      "Ġhiá»ĥm": 4514,
      "mÃ³c": 4515,
      "ĠsoÃ¡t": 4516,
      "Ġ21": 4517,
      "gÃ³c": 4518,
      "der": 4519,
      "Ġthá»īnh": 4520,
      "ionel": 4521,
      "Ġrun": 4522,
      "bÃłi": 4523,
      "ĠÄĳáº»": 4524,
      "lá»Ļn": 4525,
      "ĠtrÄĥn": 4526,
      "fo": 4527,
      "Ġlá»ıng": 4528,
      "lá»Ļc": 4529,
      "Ġpu": 4530,
      "máº¡n": 4531,
      "nhiá»ģu": 4532,
      "gin": 4533,
      "Ġlas": 4534,
      "Ġintel": 4535,
      "Ġhazard": 4536,
      "ngÃ£i": 4537,
      "oli": 4538,
      "ĠbÃłng": 4539,
      "Ġmail": 4540,
      "ĠnghiÃªng": 4541,
      "ĠvÄĥcxin": 4542,
      "Ġtie": 4543,
      "Ġcáº¥y": 4544,
      "Ġváº¡n": 4545,
      "Ġngoan": 4546,
      "Ġscience": 4547,
      "hiá»ĩp": 4548,
      "Ġhá»ķ": 4549,
      "oanh": 4550,
      "trÃ²n": 4551,
      "vá»±ng": 4552,
      "Ġgym": 4553,
      "Ġkiá»ģu": 4554,
      "phá»ıng": 4555,
      "nÄĥm": 4556,
      "ones": 4557,
      "tock": 4558,
      "Ġxiao": 4559,
      "táº¥n": 4560,
      "Äĳen": 4561,
      "Ġchai": 4562,
      "ĠÄĳÃ¡i": 4563,
      "alan": 4564,
      "Ġtrá»¥c": 4565,
      "ere": 4566,
      "Ġcel": 4567,
      "ĠmÃ´ng": 4568,
      "cast": 4569,
      "Ġget": 4570,
      "andal": 4571,
      "cai": 4572,
      "pháº£i": 4573,
      "cker": 4574,
      "Ġtá»¥t": 4575,
      "khoÃ¡c": 4576,
      "Ġcá»ĵn": 4577,
      "Ġsar": 4578,
      "ase": 4579,
      "ĠthÃ¢m": 4580,
      "Ġsergio": 4581,
      "ĠngÅ©": 4582,
      "ĠdáºŃp": 4583,
      "cháº©n": 4584,
      "ĠbuÃ´n": 4585,
      "tis": 4586,
      "ĠngÃłn": 4587,
      "cháº¯c": 4588,
      "ĠkhuÃª": 4589,
      "Ġnhiáº¿p": 4590,
      "Ġfir": 4591,
      "Ġtesla": 4592,
      "vietnam": 4593,
      "xáº¿": 4594,
      "ÌĤÌĥ": 4595,
      "Ġhá»Ĺn": 4596,
      "ĠÄĳÃ³i": 4597,
      "Ġop": 4598,
      "Ġláº½": 4599,
      "lish": 4600,
      "mÃ²": 4601,
      "Ġhack": 4602,
      "Ġcá»ı": 4603,
      "Ġcá»Łi": 4604,
      "ison": 4605,
      "Ġnuá»ĳt": 4606,
      "Ġrap": 4607,
      "cáºŃy": 4608,
      "tá»Ŀ": 4609,
      "Ġmá»Ŀ": 4610,
      "80": 4611,
      "Ġspac": 4612,
      "tuÃ½": 4613,
      "ĠtÆ°á»£ng": 4614,
      "iam": 4615,
      "Ġku": 4616,
      "Ġlap": 4617,
      "nhá»ı": 4618,
      "Ġdie": 4619,
      "Ġhon": 4620,
      "Ġkhang": 4621,
      "Ġmarti": 4622,
      "Ġhorm": 4623,
      "unt": 4624,
      "way": 4625,
      "Äĳáº¡p": 4626,
      "Äĳáº·n": 4627,
      "ĠnhÃ£": 4628,
      "ium": 4629,
      "kiá»ĩt": 4630,
      "Ġweibo": 4631,
      "ple": 4632,
      "ĠmÃ¨o": 4633,
      "uel": 4634,
      "Ġjad": 4635,
      "Ġcou": 4636,
      "ĠdÃ¡n": 4637,
      "Ġ23": 4638,
      "biá»ĩn": 4639,
      "ĠkhÃ¡i": 4640,
      "Ġnou": 4641,
      "ĠphÆ°á»Ľc": 4642,
      "Ġloan": 4643,
      "Ġsky": 4644,
      "ĠngáºŃp": 4645,
      "wer": 4646,
      "tá»±u": 4647,
      "Ġbáº©m": 4648,
      "ĠchÄĥn": 4649,
      "Ġlionel": 4650,
      "ngá»Ļ": 4651,
      "Ġmartial": 4652,
      "vá»¡": 4653,
      "Ġgroup": 4654,
      "Ġsaudi": 4655,
      "ĠlÃºa": 4656,
      "chua": 4657,
      "nguá»ĵn": 4658,
      "ble": 4659,
      "Ġtráº¡i": 4660,
      "Ġhung": 4661,
      "Ġloa": 4662,
      "exico": 4663,
      "khÃ³": 4664,
      "Ġoxford": 4665,
      "xá»ī": 4666,
      "Ġmer": 4667,
      "khoáº£ng": 4668,
      "ĠÄĳÃºp": 4669,
      "dá»įc": 4670,
      "hai": 4671,
      "Ġcp": 4672,
      "cÃ¡": 4673,
      "dio": 4674,
      "field": 4675,
      "Ġmá»ĩnh": 4676,
      "lÆ°á»¡ng": 4677,
      "ily": 4678,
      "oga": 4679,
      "ology": 4680,
      "br": 4681,
      "Ġsung": 4682,
      "gr": 4683,
      "ĠmÃ£n": 4684,
      "atar": 4685,
      "hoÃłi": 4686,
      "Ġngáº¯m": 4687,
      "Ġzu": 4688,
      "ĠngÆ°Æ¡": 4689,
      "Ġtriá»ĩt": 4690,
      "ĠphÃ¡n": 4691,
      "ema": 4692,
      "Ġyoung": 4693,
      "zy": 4694,
      "ĠnhÆ°á»Ŀng": 4695,
      "Ġvy": 4696,
      "ĠnÃ¢u": 4697,
      "Ġtur": 4698,
      "Ġ2020": 4699,
      "Ġná»Ł": 4700,
      "Ġgiá»įt": 4701,
      "báº¯c": 4702,
      "ĠtrÃ¬": 4703,
      "nar": 4704,
      "ÌĨÌģ": 4705,
      "Ġwon": 4706,
      "Ġtá»ĵi": 4707,
      "ĠtÃ´m": 4708,
      "Ġsat": 4709,
      "Ġcanxi": 4710,
      "dragon": 4711,
      "diá»ħm": 4712,
      "ĠÆ¡": 4713,
      "ings": 4714,
      "dÃ£": 4715,
      "Äĳá»±ng": 4716,
      "Ġmáº·n": 4717,
      "Ġhaaland": 4718,
      "thuÃ½": 4719,
      "ĠÄĳk": 4720,
      "Ġlive": 4721,
      "Ġtor": 4722,
      "Ġkai": 4723,
      "cl": 4724,
      "Ġbig": 4725,
      "Ġgun": 4726,
      "Ġerik": 4727,
      "mon": 4728,
      "ÄĳÃ¡m": 4729,
      "Ġsanch": 4730,
      "Ġhormone": 4731,
      "ĠchÃªnh": 4732,
      "castle": 4733,
      "Ġnguyá»ĩt": 4734,
      "lÃ¢u": 4735,
      "Ġmexico": 4736,
      "ĠgiáºŃt": 4737,
      "khÃ¡c": 4738,
      "day": 4739,
      "Ġyoga": 4740,
      "iden": 4741,
      "lÃłnh": 4742,
      "Ġngá»Ŀ": 4743,
      "diá»ĩt": 4744,
      "ĠhiÃª": 4745,
      "Ġind": 4746,
      "Ġmobile": 4747,
      "ĠhÆ°u": 4748,
      "Ġwan": 4749,
      "Ġlá»Ļc": 4750,
      "ĠxÃª": 4751,
      "Ġnt": 4752,
      "tz": 4753,
      "drig": 4754,
      "mÃłu": 4755,
      "Ġstore": 4756,
      "the": 4757,
      "ĠÃ¢n": 4758,
      "Ġmichael": 4759,
      "nuá»ĳi": 4760,
      "had": 4761,
      "Ġnewcastle": 4762,
      "ĠlÄĥn": 4763,
      "ĠnhÃ¢": 4764,
      "Ġharvard": 4765,
      "há»¥t": 4766,
      "Ġchiáº¿t": 4767,
      "Ġmá»įc": 4768,
      "Ġtáº¡t": 4769,
      "giáºŃt": 4770,
      "rá»ĭa": 4771,
      "olie": 4772,
      "ĠsÃºng": 4773,
      "ĠkÃ©p": 4774,
      "Ġshi": 4775,
      "vui": 4776,
      "arez": 4777,
      "Ġfer": 4778,
      "vÄ©nh": 4779,
      "olo": 4780,
      "báº¡n": 4781,
      "Ġchuá»ĳi": 4782,
      "iverse": 4783,
      "Ġlá»ĩch": 4784,
      "Ġmarc": 4785,
      "Ġful": 4786,
      "ngang": 4787,
      "sá»£": 4788,
      "Ġder": 4789,
      "Ġchrist": 4790,
      "Ġpan": 4791,
      "hÃłi": 4792,
      "ĳn": 4793,
      "ogue": 4794,
      "ĠbÃło": 4795,
      "ĠkhÆ¡i": 4796,
      "pton": 4797,
      "cá»ı": 4798,
      "chá»«ng": 4799,
      "Ġarabia": 4800,
      "01": 4801,
      "thÃ¬": 4802,
      "ĠÄĳiÃª": 4803,
      "kr": 4804,
      "res": 4805,
      "ĠÃºt": 4806,
      "thang": 4807,
      "sÃłn": 4808,
      "ĠphÆ¡i": 4809,
      "Ġnáº£y": 4810,
      "Ġsilva": 4811,
      "Ġpas": 4812,
      "soáº¡n": 4813,
      "ĠgiÃ¡ng": 4814,
      "Ġrung": 4815,
      "ĠchÃ¬m": 4816,
      "tan": 4817,
      "ĠnhiÃª": 4818,
      "ĠbÃ¡t": 4819,
      "tup": 4820,
      "Ġdiá»ħm": 4821,
      "Ġart": 4822,
      "Ġhá»ĳi": 4823,
      "che": 4824,
      "ĠtÃ¡m": 4825,
      "Ġtrailer": 4826,
      "gra": 4827,
      "giáºŃn": 4828,
      "ĠcÆ°á»Ľp": 4829,
      "Ġschool": 4830,
      "Ġcas": 4831,
      "bank": 4832,
      "mÃ¬": 4833,
      "ĠbÃ³": 4834,
      "Ġcalo": 4835,
      "efl": 4836,
      "Ġenglish": 4837,
      "rá»ī": 4838,
      "Ġclo": 4839,
      "ment": 4840,
      "ĠtrÃºc": 4841,
      "Ġlivestream": 4842,
      "lá»ĩnh": 4843,
      "ngÆ°á»£c": 4844,
      "Ġ22": 4845,
      "Ġmob": 4846,
      "page": 4847,
      "world": 4848,
      "ngáº·t": 4849,
      "Ġkhuy": 4850,
      "Ġxáº¡": 4851,
      "Ġwales": 4852,
      "Ġstress": 4853,
      "trÃ¡n": 4854,
      "ÄĳÃ´i": 4855,
      "iness": 4856,
      "Ġnhung": 4857,
      "nt": 4858,
      "Ġthoáº¡i": 4859,
      "Ġjadon": 4860,
      "ĠchÃ©o": 4861,
      "lie": 4862,
      "ĠÄĳáº¡m": 4863,
      "well": 4864,
      "khu": 4865,
      "ĠhÃ©": 4866,
      "tÃ³c": 4867,
      "ĠlÃµi": 4868,
      "pháº«u": 4869,
      "ĠÄĳuÃ´i": 4870,
      "Ġster": 4871,
      "Ġtoefl": 4872,
      "Ġnex": 4873,
      "lÃ©o": 4874,
      "ná»ķi": 4875,
      "can": 4876,
      "17": 4877,
      "láº«n": 4878,
      "Ġtrá»ħ": 4879,
      "ĠuyÃªn": 4880,
      "Ġsá»į": 4881,
      "Ġnhá»ĵi": 4882,
      "á»¥a": 4883,
      "Ġuef": 4884,
      "isa": 4885,
      "Ġmini": 4886,
      "ĠlÃ´i": 4887,
      "dÄ©": 4888,
      "ros": 4889,
      "Ġsuper": 4890,
      "Ġgay": 4891,
      "hiáº¿u": 4892,
      "Ġlamp": 4893,
      "dam": 4894,
      "tráº¯c": 4895,
      "Ġcur": 4896,
      "Ġstartup": 4897,
      "xá»©": 4898,
      "chá»ĳt": 4899,
      "Ġecm": 4900,
      "Ġred": 4901,
      "for": 4902,
      "xanh": 4903,
      "ni": 4904,
      "Ġcong": 4905,
      "sá»ķ": 4906,
      "ardo": 4907,
      "Ġ200": 4908,
      "book": 4909,
      "ĠtrÃło": 4910,
      "ted": 4911,
      "Ġshut": 4912,
      "Ġuefa": 4913,
      "bie": 4914,
      "Ġáº¡": 4915,
      "Ġtuá»·": 4916,
      "vani": 4917,
      "Ġblock": 4918,
      "Ġmir": 4919,
      "Ġglo": 4920,
      "ĠloÃ©t": 4921,
      "Ġecmo": 4922,
      "ĠlÃ¢n": 4923,
      "Ġnho": 4924,
      "san": 4925,
      "nguyá»ĩt": 4926,
      "ĠkhÃ³i": 4927,
      "Ġmáº¡o": 4928,
      "Ġgar": 4929,
      "ife": 4930,
      "ĠchÃ¡nh": 4931,
      "ĠgÃ²": 4932,
      "thiáº¿u": 4933,
      "ston": 4934,
      "Ġspacex": 4935,
      "Ġlogi": 4936,
      "ĠláºŃt": 4937,
      "ĠrÃło": 4938,
      "si": 4939,
      "Ġgl": 4940,
      "ĠgÃ³t": 4941,
      "ĠgiÃ¡p": 4942,
      "ĠÃł": 4943,
      "Ġbenz": 4944,
      "Ġtaylor": 4945,
      "Ġbxh": 4946,
      "Ġdá»įc": 4947,
      "Ġsnap": 4948,
      "Ġsports": 4949,
      "Ġvogue": 4950,
      "Ġrá»±c": 4951,
      "Ġwood": 4952,
      "Ġsoáº¡n": 4953,
      "kÃ©o": 4954,
      "Ġul": 4955,
      "oney": 4956,
      "iger": 4957,
      "trÃł": 4958,
      "Ã´m": 4959,
      "ĠÄĳáº±ng": 4960,
      "Ġngá»±a": 4961,
      "Ġwhat": 4962,
      "Ġfe": 4963,
      "Ġsanchez": 4964,
      "ĠphÃ´i": 4965,
      "Ġkhoai": 4966,
      "ĠÄĳÃ¹a": 4967,
      "ĠlÄĥng": 4968,
      "Ġ50": 4969,
      "Ġvá»įt": 4970,
      "cation": 4971,
      "Ġdes": 4972,
      "chÃ©p": 4973,
      "Ġná»ĳt": 4974,
      "Ġwatch": 4975,
      "Ġaz": 4976,
      "ĠtÃ¹": 4977,
      "ĠdÃ¢u": 4978,
      "Ġkhoang": 4979,
      "háº¹p": 4980,
      "ĠcÃ´n": 4981,
      "ĠÄĳáº¯c": 4982,
      "Ġtrau": 4983,
      "áº»o": 4984,
      "ider": 4985,
      "ĠÃ´tÃ´": 4986,
      "Ġdj": 4987,
      "Ġramos": 4988,
      "Ġnic": 4989,
      "ĠtrÄĥng": 4990,
      "niÃª": 4991,
      "chain": 4992,
      "Ġkhcn": 4993,
      "tháº¯n": 4994,
      "esse": 4995,
      "ixel": 4996,
      "mbia": 4997,
      "Ġvil": 4998,
      "universe": 4999,
      "ĠcháºŃt": 5000,
      "ical": 5001,
      "giÃł": 5002,
      "Ġgiáº£n": 5003,
      "terstock": 5004,
      "vang": 5005,
      "Ġbale": 5006,
      "Ġluc": 5007,
      "Ġqatar": 5008,
      "vá»£t": 5009,
      "Ġrom": 5010,
      "eon": 5011,
      "chá»Ŀ": 5012,
      "iez": 5013,
      "ĠÄĳáº¡p": 5014,
      "uez": 5015,
      "rl": 5016,
      "Ġcavani": 5017,
      "Ġfanpage": 5018,
      "mÆ°u": 5019,
      "cos": 5020,
      "ĠbÃ¡": 5021,
      "Ġgram": 5022,
      "ĠgáºŃp": 5023,
      "walk": 5024,
      "Ġmá»Ļc": 5025,
      "Ġvoi": 5026,
      "Ġhel": 5027,
      "rael": 5028,
      "90": 5029,
      "Ġvictoria": 5030,
      "Ġchol": 5031,
      "Ġri": 5032,
      "Ġxáº»": 5033,
      "eople": 5034,
      "Ġcry": 5035,
      "Ġkiá»ĩt": 5036,
      "news": 5037,
      "chÃºa": 5038,
      "dÃ²": 5039,
      "Ġbh": 5040,
      "Ġcá»¡": 5041,
      "Ġsuarez": 5042,
      "bá»¥ng": 5043,
      "Ġshutterstock": 5044,
      "ĠtÃ¡n": 5045,
      "kham": 5046,
      "xÃ³m": 5047,
      "Ġisrael": 5048,
      "bel": 5049,
      "Ġtex": 5050,
      "ĠcÆ°ng": 5051,
      "nhá»§": 5052,
      "ĠÄĳÃ¢": 5053,
      "Ġgab": 5054,
      "60": 5055,
      "Ġsá»¥t": 5056,
      "aco": 5057,
      "bá»ıng": 5058,
      "Ġtel": 5059,
      "ĠÄĳá»¥": 5060,
      "Ġhd": 5061,
      "bai": 5062,
      "iezmann": 5063,
      "Ġmos": 5064,
      "háº¡nh": 5065,
      "Ġmá»±c": 5066,
      "xÃ¡ch": 5067,
      "há»Ļp": 5068,
      "ĠÄĳkvÄĳ": 5069,
      "Ġnap": 5070,
      "Ġgriezmann": 5071,
      "ĠthÆ°a": 5072,
      "Ġsgk": 5073,
      "Ġlampard": 5074,
      "Ġcá»ĳc": 5075,
      "ĠvÃª": 5076,
      "ifone": 5077,
      "Ġtriáº¿t": 5078,
      "Ġny": 5079,
      "Ġrich": 5080,
      "comm": 5081,
      "Ġrt": 5082,
      "dáº¡": 5083,
      "Ġct": 5084,
      "nhÃ£": 5085,
      "ĠlÆ°á»¡i": 5086,
      "Ġelon": 5087,
      "dÃ¢y": 5088,
      "Ġpeople": 5089,
      "ĠchÃ¹a": 5090,
      "viáº¿t": 5091,
      "Ġbos": 5092,
      "Ġ500": 5093,
      "yang": 5094,
      "ĠÄĳtqg": 5095,
      "Ġ..": 5096,
      "ato": 5097,
      "Ġngá»įn": 5098,
      "ĠsÃ³c": 5099,
      "khÃ´i": 5100,
      "Ġfab": 5101,
      "Ġtime": 5102,
      "bá»ĳi": 5103,
      "Ġdn": 5104,
      "giáº¥y": 5105,
      "out": 5106,
      "sáº½": 5107,
      "ĠquÃ¡ch": 5108,
      "Ġdá»ĭu": 5109,
      "ĠÄĳá»¥ng": 5110,
      "col": 5111,
      "gáº·p": 5112,
      "Ġváº¡ch": 5113,
      "org": 5114,
      "Ġmobifone": 5115,
      "Ġbol": 5116,
      "Ġbinh": 5117,
      "Ġfrank": 5118,
      "Ġdiá»ĩp": 5119,
      "Ġgáº¡ch": 5120,
      "Ġcen": 5121,
      "ezone": 5122,
      "Ġcarbon": 5123,
      "ĠxÃ¡m": 5124,
      "Ġmoderna": 5125,
      "Ġbáº©n": 5126,
      "Ġ25": 5127,
      "300": 5128,
      "ĠÄĳÃłnh": 5129,
      "chay": 5130,
      "ert": 5131,
      "Ġtour": 5132,
      "Ġwilliam": 5133,
      "gá»ĳi": 5134,
      "Ġqual": 5135,
      "Ġek": 5136,
      "sw": 5137,
      "ĠtÃ²": 5138,
      "Ġthá»¥c": 5139,
      "aro": 5140,
      "bele": 5141,
      "ure": 5142,
      "angeles": 5143,
      "ĠcÆ°á»Ľc": 5144,
      "Ġml": 5145,
      "ĠbÆ¡m": 5146,
      "arm": 5147,
      "Ġpop": 5148,
      "cáº¯p": 5149,
      "sey": 5150,
      "ĠbÄĥn": 5151,
      "Ġsina": 5152,
      "Ġnháº«n": 5153,
      "Ġhcdc": 5154,
      "45": 5155,
      "bÃª": 5156,
      "nes": 5157,
      "sp": 5158,
      "je": 5159,
      "ĠgiáºŃn": 5160,
      "ĠkhÃŃa": 5161,
      "Ġday": 5162,
      "Ġic": 5163,
      "trá»©ng": 5164,
      "ĠthoÃ¡ng": 5165,
      "esterol": 5166,
      "ĠkhiÃªm": 5167,
      "khoÄĥn": 5168,
      "Ġbluezone": 5169,
      "Ġwith": 5170,
      "act": 5171,
      "láºŃn": 5172,
      "ture": 5173,
      "ĠngÆ°": 5174,
      "Ġfun": 5175,
      "Ġvilla": 5176,
      "ĠmÃ³ng": 5177,
      "Ġluis": 5178,
      "Ġangelina": 5179,
      "lÃ£nh": 5180,
      "Ġwil": 5181,
      "ĠchÃ¬a": 5182,
      "Ġcholesterol": 5183,
      "Ġráº¯c": 5184,
      "sky": 5185,
      "ĠvÄ©": 5186,
      "ĠlÃŃt": 5187,
      "rey": 5188,
      "Ġrodrig": 5189,
      "Äĳáº·c": 5190,
      "Ġmr": 5191,
      "Ġngáº«u": 5192,
      "anda": 5193,
      "báº¡o": 5194,
      "há»į": 5195,
      "Ġlike": 5196,
      "Ġnov": 5197,
      "Ġiot": 5198,
      "Ġbusiness": 5199,
      "Ġvas": 5200,
      "ĠsÆ°Æ¡ng": 5201,
      "Ġkhoanh": 5202,
      "Ġchá»įc": 5203,
      "Ġrapper": 5204,
      "trÆ°á»Ľc": 5205,
      "gb": 5206,
      "Ġkhe": 5207,
      "rá»ĩt": 5208,
      "giá»ĳng": 5209,
      "ĠÄĳÃ´n": 5210,
      "Äĳá»©ng": 5211,
      "trÃ¡i": 5212,
      "Ġyour": 5213,
      "Ġhp": 5214,
      "Ġliveshow": 5215,
      "Ġeducation": 5216,
      "Ġira": 5217,
      "Ġhoáº¡i": 5218,
      "Ġchanh": 5219,
      "Ġtháº¥m": 5220,
      "Ġthuáº§n": 5221,
      "Ġgá»¥c": 5222,
      "600": 5223,
      "yan": 5224,
      "ĠsÃ´": 5225,
      "tos": 5226,
      "Ġnghie": 5227,
      "hlv": 5228,
      "Ġseoul": 5229,
      "ÄĳÃł": 5230,
      "Ġxiaomi": 5231,
      "lig": 5232,
      "Ġmend": 5233,
      "Ġare": 5234,
      "thá»±": 5235,
      "khÃ¡t": 5236,
      "real": 5237,
      "25": 5238,
      "400": 5239,
      "liÃªm": 5240,
      "ĠchÃ¨n": 5241,
      "Ġcomp": 5242,
      "máº·c": 5243,
      "Ġngá»¥": 5244,
      "ita": 5245,
      "Ġoanh": 5246,
      "Ġjohnson": 5247,
      "mith": 5248,
      "cá»±": 5249,
      "ĠdÃ¢ng": 5250,
      "cáº§m": 5251,
      "ĠphÃ¡i": 5252,
      "Ġdáº£i": 5253,
      "ĠphiÃªu": 5254,
      "dro": 5255,
      "Ġmaria": 5256,
      "thy": 5257,
      "ali": 5258,
      "Ġqr": 5259,
      "fer": 5260,
      "Ġlá»¥a": 5261,
      "tháº§u": 5262,
      "Ġiraq": 5263,
      "Ġcáº£ng": 5264,
      "ear": 5265,
      "Ġvir": 5266,
      "tráº¡i": 5267,
      "mÃ¡t": 5268,
      "Ġmake": 5269,
      "Ġkat": 5270,
      "uss": 5271,
      "mer": 5272,
      "villa": 5273,
      "ĠcÃºc": 5274,
      "á»ĩn": 5275,
      "Ġbenzema": 5276,
      "ĠÄĳÃ¡y": 5277,
      "Ġvang": 5278,
      "Ġkhiáº¿m": 5279,
      "áº½n": 5280,
      "ial": 5281,
      "ĠthÃ¹ng": 5282,
      "Ġntk": 5283,
      "Ġcay": 5284,
      "ette": 5285,
      "tron": 5286,
      "Ġthá»ģ": 5287,
      "giÃ¡p": 5288,
      "Ġtuá»µ": 5289,
      "phÃºt": 5290,
      "Ġhie": 5291,
      "Ġter": 5292,
      "jin": 5293,
      "Ġcá»Ĺ": 5294,
      "vie": 5295,
      "gÃ¬n": 5296,
      "miá»ĩn": 5297,
      "Ġbong": 5298,
      "sÃºt": 5299,
      "Ġghen": 5300,
      "Ġalexander": 5301,
      "Ġmg": 5302,
      "Ġdelta": 5303,
      "jk": 5304,
      "ĠghÃ©t": 5305,
      "Ġbrigh": 5306,
      "Ġhend": 5307,
      "dá»ĵi": 5308,
      "ĠngÃ¢m": 5309,
      "trá»ĵng": 5310,
      "Ġgai": 5311,
      "Ġláº¥p": 5312,
      "ery": 5313,
      "ká»¹": 5314,
      "Ġgreenwood": 5315,
      "vu": 5316,
      "oooo": 5317,
      "quyá»ĥn": 5318,
      "outh": 5319,
      "ĠÄĳÄĥk": 5320,
      "Ġmá»Ļ": 5321,
      "Ġnáº¿p": 5322,
      "triá»ģu": 5323,
      "Ġlouis": 5324,
      "Ġlevel": 5325,
      "jax": 5326,
      "Ġbá»©t": 5327,
      "ckham": 5328,
      "Ġsevilla": 5329,
      "ĠbÃ¬a": 5330,
      "Ġni": 5331,
      "Ã©c": 5332,
      "ngÃ´i": 5333,
      "Ġtoa": 5334,
      "Ġzh": 5335,
      "Ġscandal": 5336,
      "Ġcatwalk": 5337,
      "tuyáº¿t": 5338,
      "Ġsáº¹o": 5339,
      "mes": 5340,
      "ĠvÃ¢": 5341,
      "Ġajax": 5342,
      "ms": 5343,
      "Ġchá»Ń": 5344,
      "elli": 5345,
      "Ġqualcomm": 5346,
      "Ġbor": 5347,
      "Ġkno": 5348,
      "ÌĽÌĥ": 5349,
      "ĠgÃ¡c": 5350,
      "cci": 5351,
      "sd": 5352,
      "Ġiv": 5353,
      "icon": 5354,
      "ĠbÃ´i": 5355,
      "ĠâĢĭ": 5356,
      "ĠnÃ©m": 5357,
      "Ġagu": 5358,
      "tinho": 5359,
      "ĠÄĳiÃªn": 5360,
      "á»¥t": 5361,
      "Ġjoe": 5362,
      "Ġ2019": 5363,
      "Ġtá»ĳng": 5364,
      "aine": 5365,
      "dáº§u": 5366,
      "bÃ³n": 5367,
      "ĠhÃ´ng": 5368,
      "ĠlÄĳ": 5369,
      "Ġsony": 5370,
      "Ġhs": 5371,
      "Ġdáº«u": 5372,
      "encia": 5373,
      "Ġuá»ĳn": 5374,
      "ors": 5375,
      "Ġpixel": 5376,
      "att": 5377,
      "táº·c": 5378,
      "Ġláº¥n": 5379,
      "ĠtráºŃt": 5380,
      "hoi": 5381,
      "Ġasiad": 5382,
      "Ġgames": 5383,
      "Ġrobert": 5384,
      "12": 5385,
      "gon": 5386,
      "mÃ£i": 5387,
      "zo": 5388,
      "Ġblockchain": 5389,
      "Ġvarane": 5390,
      "gar": 5391,
      "ĠthÆ¡m": 5392,
      "táº¡ng": 5393,
      "lian": 5394,
      "á»ĭt": 5395,
      "Ġmá»ı": 5396,
      "Ġtnh": 5397,
      "cáº§n": 5398,
      "Ġgáº§y": 5399,
      "Ġgom": 5400,
      "Ġzoom": 5401,
      "Ġngá»©a": 5402,
      "ĠvÄĳ": 5403,
      "ĠxÃ´": 5404,
      "ĳc": 5405,
      "ĠhoÃłnh": 5406,
      "ĠphÃ´": 5407,
      "Ġroma": 5408,
      "13": 5409,
      "Ġlear": 5410,
      "Ġzucker": 5411,
      "Ġtnhh": 5412,
      "ĠbiÃª": 5413,
      "stal": 5414,
      "cá»¡": 5415,
      "Ġáº¥p": 5416,
      "Ġnapoli": 5417,
      "Ġren": 5418,
      "canh": 5419,
      "Ġrem": 5420,
      "stan": 5421,
      "Ġbon": 5422,
      "Ġkit": 5423,
      "trá»Ļn": 5424,
      "nhÄ©": 5425,
      "lÃµi": 5426,
      "Ġbel": 5427,
      "ÄĳÃłm": 5428,
      "fi": 5429,
      "dáº§n": 5430,
      "Ġfin": 5431,
      "Ġcy": 5432,
      "ampton": 5433,
      "Ġpoly": 5434,
      "Ġling": 5435,
      "Ġms": 5436,
      "Ġkiatis": 5437,
      "Ġpalace": 5438,
      "Ġlá»į": 5439,
      "Ġjur": 5440,
      "jolie": 5441,
      "±ng": 5442,
      "Ġzuckerberg": 5443,
      "ivi": 5444,
      "Ġtrá»Ļm": 5445,
      "chÃłng": 5446,
      "chet": 5447,
      "ĠvÄĳqg": 5448,
      "tá»īnh": 5449,
      "Ġkhá»ĳng": 5450,
      "Ġaston": 5451,
      "Ġarn": 5452,
      "dÃ¢m": 5453,
      "thuáº§n": 5454,
      "láº¥n": 5455,
      "sta": 5456,
      "Ġtuchel": 5457,
      "Ġtiá»ĩm": 5458,
      "ĠdÄ©": 5459,
      "ory": 5460,
      "cÄĥn": 5461,
      "nÃ´n": 5462,
      "thá»Ł": 5463,
      "Ġhoáº£ng": 5464,
      "Ġlá»Ļt": 5465,
      "Ġlin": 5466,
      "Ġtexas": 5467,
      "eder": 5468,
      "Ġinternational": 5469,
      "ady": 5470,
      "voi": 5471,
      "ĠvÃłnh": 5472,
      "Ġamerica": 5473,
      "Ġchen": 5474,
      "ĠgiÃ¡c": 5475,
      "diá»ĩu": 5476,
      "tháº¡o": 5477,
      "Ġhave": 5478,
      "Ġá»ĳc": 5479,
      "ĠÄĳáº¿m": 5480,
      "ĠÃ¢u": 5481,
      "nghiá»ĩt": 5482,
      "quyÃªn": 5483,
      "ĠÄĳá»±ng": 5484,
      "bá»Ļt": 5485,
      "ĠÄĳÃ²n": 5486,
      "liá»ħu": 5487,
      "Ġhotline": 5488,
      "athon": 5489,
      "Ġsnapdragon": 5490,
      "tal": 5491,
      "Ġláº¡ng": 5492,
      "Ġken": 5493,
      "Ġmis": 5494,
      "Äĳáº¯n": 5495,
      "Äĳá»įc": 5496,
      "Ġdá»ĳc": 5497,
      "Ġgood": 5498,
      "iago": 5499,
      "Ġsouthampton": 5500,
      "Ġdata": 5501,
      "Ġ24": 5502,
      "dney": 5503,
      "Ġhari": 5504,
      "ĠbuÃ´ng": 5505,
      "ole": 5506,
      "anoi": 5507,
      "á»ĳp": 5508,
      "ĠmÃ¬": 5509,
      "Ġráº£nh": 5510,
      "ati": 5511,
      "young": 5512,
      "Ġflorida": 5513,
      "Ġdiego": 5514,
      "ná»Ł": 5515,
      "Ġlá»ģ": 5516,
      "Ġang": 5517,
      "Ġmane": 5518,
      "cá»Ŀ": 5519,
      "Ġrock": 5520,
      "vá»¹": 5521,
      "mail": 5522,
      "cia": 5523,
      "Ġbá»ĥ": 5524,
      "nháº«n": 5525,
      "Ġbern": 5526,
      "Ġspe": 5527,
      "Ġger": 5528,
      "Ġkáº½": 5529,
      "Ġnáº¡p": 5530,
      "ĠthÃ¹": 5531,
      "Ġderby": 5532,
      "bÃ¡ch": 5533,
      "ĠÄĳáº¿": 5534,
      "ĠhÃ¡o": 5535,
      "Ġnokia": 5536,
      "Ġváº¥p": 5537,
      "hoÃ£n": 5538,
      "Ġmoham": 5539,
      "Ġsterling": 5540,
      "Ġcrystal": 5541,
      "Ġdáº·n": 5542,
      "Ġtrá»Ļn": 5543,
      "bour": 5544,
      "ĠcÃ¡m": 5545,
      "ĠpháºŃt": 5546,
      "Æ°Æ¡m": 5547,
      "má»ĳi": 5548,
      "Ġhome": 5549,
      "Ġbund": 5550,
      "Ġnháº¡": 5551,
      "Ġshaw": 5552,
      "ĠthoÃ¡i": 5553,
      "ĠlÃŃnh": 5554,
      "Ġden": 5555,
      "Ġwas": 5556,
      "los": 5557,
      "ights": 5558,
      "xao": 5559,
      "Ġbá»įc": 5560,
      "ĠmÃły": 5561,
      "Ġháº¡ch": 5562,
      "lee": 5563,
      "ardian": 5564,
      "flix": 5565,
      "him": 5566,
      "Ġchuy": 5567,
      "Ġtá»±a": 5568,
      "Ġnext": 5569,
      "tá»Ļi": 5570,
      "Ġcook": 5571,
      "náº¡t": 5572,
      "Ġaguero": 5573,
      "gom": 5574,
      "rom": 5575,
      "Ġcoutinho": 5576,
      "ĠkhÃŃch": 5577,
      "bieber": 5578,
      "kg": 5579,
      "ÄĳÃ¹a": 5580,
      "Ġkhanh": 5581,
      "ĠgiÆ¡": 5582,
      "Ġsydney": 5583,
      "kÃŃch": 5584,
      "ets": 5585,
      "ria": 5586,
      "Ġmit": 5587,
      "sterdam": 5588,
      "Ġnetflix": 5589,
      "ĠthÃ¢": 5590,
      "Ġwar": 5591,
      "ug": 5592,
      "ĠÄĳáº¯k": 5593,
      "Ġbil": 5594,
      "Ġamsterdam": 5595,
      "Ġchat": 5596,
      "Ġanton": 5597,
      "Ġvins": 5598,
      "tÃºng": 5599,
      "ĠmÆ°á»Ŀi": 5600,
      "Ġong": 5601,
      "wi": 5602,
      "Ġao": 5603,
      "Ġnháº¡t": 5604,
      "Ġbritney": 5605,
      "pitt": 5606,
      "tain": 5607,
      "Ġoman": 5608,
      "ware": 5609,
      "Ġdia": 5610,
      "800": 5611,
      "tland": 5612,
      "Ġteam": 5613,
      "khá»Łi": 5614,
      "70": 5615,
      "Ġnang": 5616,
      "ĠrÃ¡ch": 5617,
      "week": 5618,
      "gÃł": 5619,
      "med": 5620,
      "tháº§m": 5621,
      "Ġole": 5622,
      "máºŃp": 5623,
      "Ġtivi": 5624,
      "thony": 5625,
      "Ġhydro": 5626,
      "Ġbbc": 5627,
      "emy": 5628,
      "Ġblues": 5629,
      "zio": 5630,
      "Äĳá»ķ": 5631,
      "Ġki": 5632,
      "Ġthá»į": 5633,
      "Ġburn": 5634,
      "ĠÃ¡i": 5635,
      "Ġberna": 5636,
      "Ġmedia": 5637,
      "Ġláº·ng": 5638,
      "Ġthis": 5639,
      "Äĳáº¯p": 5640,
      "ĠvÃ¡n": 5641,
      "Ġwolves": 5642,
      "gy": 5643,
      "ow": 5644,
      "quay": 5645,
      "Ġ40": 5646,
      "des": 5647,
      "Ġhenderson": 5648,
      "Ġlingard": 5649,
      "Ġmem": 5650,
      "Ġcua": 5651,
      "Ġbundes": 5652,
      "ĠÄĳiá»ĩu": 5653,
      "inter": 5654,
      "Ġjam": 5655,
      "Ġjurgen": 5656,
      "gá»įn": 5657,
      "Ġbernabe": 5658,
      "Ġsand": 5659,
      "Ġlie": 5660,
      "ĠdÃ£y": 5661,
      "ĠsuÃ½t": 5662,
      "liga": 5663,
      "vá»Ł": 5664,
      "trÃªn": 5665,
      "Ġtelecom": 5666,
      "Ġdembele": 5667,
      "cal": 5668,
      "Ġbin": 5669,
      "ĠlÆ°á»Ŀng": 5670,
      "Ġkon": 5671,
      "Ġkhiáº¿u": 5672,
      "há»©c": 5673,
      "Ġict": 5674,
      "Ġbrighton": 5675,
      "Ġbernabeu": 5676,
      "Ġson": 5677,
      "ade": 5678,
      "Ġbundesliga": 5679,
      "Ġgrand": 5680,
      "hiáº¿m": 5681,
      "pez": 5682,
      "Ġvpf": 5683,
      "Ġincheon": 5684,
      "Ġbá»Ĺng": 5685,
      "Æ°á»Łi": 5686,
      "Ġcolo": 5687,
      "Ġlove": 5688,
      "Ġperez": 5689,
      "sáº¡ch": 5690,
      "ĠkÄ©": 5691,
      "Ġran": 5692,
      "Ġhá»¥t": 5693,
      "Ġcomm": 5694,
      "ĠbÃ´": 5695,
      "ĠthÃ©p": 5696,
      "chettino": 5697,
      "Ġbruy": 5698,
      "bala": 5699,
      "gáº¯t": 5700,
      "ĠtÃ¢": 5701,
      "ÄĳÃ¡n": 5702,
      "ĠÄĳáº«y": 5703,
      "quÃ¡t": 5704,
      "Ġgetty": 5705,
      "of": 5706,
      "Äĳáº»": 5707,
      "ĠnÃ´": 5708,
      "cá»ĳc": 5709,
      "ĠÄĳiá»ĩp": 5710,
      "dá»ĭp": 5711,
      "lá»ıng": 5712,
      "Ġbloom": 5713,
      "rÆ¡i": 5714,
      "Ġmot": 5715,
      "Ġopp": 5716,
      "Ġpochettino": 5717,
      "99": 5718,
      "Ġkr": 5719,
      "Ġjan": 5720,
      "vic": 5721,
      "Ġhá»ĵn": 5722,
      "cy": 5723,
      "700": 5724,
      "Ġbáº¯p": 5725,
      "burg": 5726,
      "Ġcour": 5727,
      "Ġglobal": 5728,
      "Ġbáº¥y": 5729,
      "Ġleon": 5730,
      "Ġbruyne": 5731,
      "Ġkhao": 5732,
      "14": 5733,
      "ĠrÆ°á»¡i": 5734,
      "miá»ĩng": 5735,
      "oll": 5736,
      "face": 5737,
      "Ġláº»": 5738,
      "Ġzika": 5739,
      "má»Ļng": 5740,
      "Ġiss": 5741,
      "Ġtá»ĳp": 5742,
      "táº¯m": 5743,
      "ĠbÃ³c": 5744,
      "king": 5745,
      "ĠÆ¡n": 5746,
      "dáº¹p": 5747,
      "nÃłn": 5748,
      "ĠchoÃ¡ng": 5749,
      "hip": 5750,
      "ashion": 5751,
      "Ġdybala": 5752,
      "báºŃc": 5753,
      "zig": 5754,
      "Ġfunix": 5755,
      "ĠmÃŃ": 5756,
      "thÄĥng": 5757,
      "ĠthÃ¨": 5758,
      "Ġxáº£": 5759,
      "Ġeric": 5760,
      "ĠtÆ¡": 5761,
      "cháº¥n": 5762,
      "tine": 5763,
      "Ġleip": 5764,
      "hoc": 5765,
      "Ġtrans": 5766,
      "Ġpt": 5767,
      "Ġpi": 5768,
      "Ġthon": 5769,
      "Ġnvcc": 5770,
      "sáº¥u": 5771,
      "Ġrá»¥ng": 5772,
      "áº·m": 5773,
      "ollo": 5774,
      "Ġleipzig": 5775,
      "náº¡": 5776,
      "lÆ°á»Ŀng": 5777,
      "Ġláº§m": 5778,
      "elle": 5779,
      "ĠchÃ´n": 5780,
      "chÄĥng": 5781,
      "thÆ°á»£ng": 5782,
      "ĠthÃ¡m": 5783,
      "Ġdonal": 5784,
      "Ġtá»ıi": 5785,
      "ĠtrÃ¹m": 5786,
      "láº¡t": 5787,
      "Ġanthony": 5788,
      "Ġsur": 5789,
      "Ġsty": 5790,
      "ngá»įt": 5791,
      "Ġmid": 5792,
      "Ġngáº¥t": 5793,
      "Ġvill": 5794,
      "dai": 5795,
      "Ġyu": 5796,
      "háº§u": 5797,
      "Ġmartinez": 5798,
      "Ġhat": 5799,
      "ĠxÃ´ng": 5800,
      "Ġcmc": 5801,
      "chuá»Ļng": 5802,
      "Ġtechn": 5803,
      "ree": 5804,
      "hyun": 5805,
      "ĠthÃ¨m": 5806,
      "hp": 5807,
      "vua": 5808,
      "atia": 5809,
      "aga": 5810,
      "Ġdáº¡i": 5811,
      "Ġjer": 5812,
      "ffe": 5813,
      "Ġmarathon": 5814,
      "há»ķ": 5815,
      "hee": 5816,
      "Ġhuá»ĩ": 5817,
      "Ġgolfer": 5818,
      "Ġstan": 5819,
      "Ġlaser": 5820,
      "hr": 5821,
      "ĠniÃªn": 5822,
      "ĠthÆ°á»Ľc": 5823,
      "á»ķn": 5824,
      "ardashi": 5825,
      "Ġbir": 5826,
      "liÃªu": 5827,
      "ĠnhÃ¡nh": 5828,
      "Ġháº£o": 5829,
      "Ġrub": 5830,
      "any": 5831,
      "tiáº¿c": 5832,
      "Ġnik": 5833,
      "ĠthÃ¡p": 5834,
      "lÃ¹i": 5835,
      "ĠdÆ°a": 5836,
      "Ġlyon": 5837,
      "Ġheung": 5838,
      "100": 5839,
      "náº¡i": 5840,
      "Ġvol": 5841,
      "Ġhacker": 5842,
      "Ġkhuya": 5843,
      "Ġdonald": 5844,
      "Ġchá»ĩ": 5845,
      "ĠkhiÃªu": 5846,
      "Ġguardian": 5847,
      "bot": 5848,
      "Ġloáº¡n": 5849,
      "Ġtaxi": 5850,
      "km": 5851,
      "Ġfile": 5852,
      "wai": 5853,
      "Ġukr": 5854,
      "fa": 5855,
      "Ġbáº«y": 5856,
      "Ġped": 5857,
      "ĠxÃ´n": 5858,
      "jenn": 5859,
      "Ġquáº¥y": 5860,
      "Ġkoeman": 5861,
      "phÆ°á»£ng": 5862,
      "Ãµm": 5863,
      "ogen": 5864,
      "Ġvá»±c": 5865,
      "Ġbá»įn": 5866,
      "ĠnghÃª": 5867,
      "jan": 5868,
      "inson": 5869,
      "ago": 5870,
      "Ġkang": 5871,
      "Ġtrá»«ng": 5872,
      "Ġmá»§": 5873,
      "Ġchá»ĩch": 5874,
      "75": 5875,
      "ker": 5876,
      "ĠkhÃ´n": 5877,
      "Ġrá»ĳn": 5878,
      "elly": 5879,
      "Ġnick": 5880,
      "aron": 5881,
      "board": 5882,
      "dá»ĳi": 5883,
      "ngá»±c": 5884,
      "Ġag": 5885,
      "Ġmason": 5886,
      "Ġopen": 5887,
      "Ġbik": 5888,
      "Ġgáº·t": 5889,
      "Ġfel": 5890,
      "ust": 5891,
      "âĢĭ": 5892,
      "Ġmodel": 5893,
      "vÆ°Æ¡ng": 5894,
      "Ġsoi": 5895,
      "ski": 5896,
      "graph": 5897,
      "Ġbloomberg": 5898,
      "ĠhÃ¢n": 5899,
      "ori": 5900,
      "nghá»ī": 5901,
      "Ġjeans": 5902,
      "niá»ĩu": 5903,
      "Ġbet": 5904,
      "Ġchá»Ľp": 5905,
      "emen": 5906,
      "ron": 5907,
      "mau": 5908,
      "ĠchÃ¢m": 5909,
      "Ġmá»Ļng": 5910,
      "Ġthoa": 5911,
      "huáº¿": 5912,
      "hiá»ĥn": 5913,
      "Ġmá»ĭn": 5914,
      "ĠxÄĥng": 5915,
      "khe": 5916,
      "Ġtae": 5917,
      "Ġsilicon": 5918,
      "Ġbá»ĵn": 5919,
      "Ġnish": 5920,
      "eren": 5921,
      "Ġchristian": 5922,
      "35": 5923,
      "sang": 5924,
      "Ġniá»ĩu": 5925,
      "Ġlucas": 5926,
      "cis": 5927,
      "Ġáº£": 5928,
      "bes": 5929,
      "báº£y": 5930,
      "khao": 5931,
      "Ġgabri": 5932,
      "Ġchá»«ng": 5933,
      "ngham": 5934,
      "Ġmus": 5935,
      "veen": 5936,
      "Ġpor": 5937,
      "buÃ½t": 5938,
      "Å©a": 5939,
      "Ġvalencia": 5940,
      "bÃ¡i": 5941,
      "mit": 5942,
      "bar": 5943,
      "Ġball": 5944,
      "lub": 5945,
      "Ġekip": 5946,
      "Ġ....": 5947,
      "ĠÄĳá»ĵi": 5948,
      "Ġself": 5949,
      "ĠmiÃªu": 5950,
      "Ġsmith": 5951,
      "Ġhighl": 5952,
      "eds": 5953,
      "Ġiii": 5954,
      "Ġcroatia": 5955,
      "Ġlearning": 5956,
      "Ġpeter": 5957,
      "chÃ¢m": 5958,
      "Ġxoa": 5959,
      "Ġeti": 5960,
      "Ġvá»Ĺ": 5961,
      "Ġfred": 5962,
      "Ġburnley": 5963,
      "Ġsáº¡t": 5964,
      "ĠchÆ°": 5965,
      "Ġpc": 5966,
      "Ġchile": 5967,
      "Ġaub": 5968,
      "work": 5969,
      "Ġchá»Ńi": 5970,
      "Ġoppo": 5971,
      "Ġnx": 5972,
      "Ġjim": 5973,
      "iana": 5974,
      "eland": 5975,
      "Ġtrá»¯": 5976,
      "Ġnad": 5977,
      "Ġdijk": 5978,
      "báº¿p": 5979,
      "rÃ¡p": 5980,
      "aba": 5981,
      "Ġsw": 5982,
      "esus": 5983,
      "Ġgrab": 5984,
      "háºŃn": 5985,
      "Ã¬u": 5986,
      "Ġquyá»ĥn": 5987,
      "tÆ°Æ¡ng": 5988,
      "ĠÄĳáº¯p": 5989,
      "ÃŃu": 5990,
      "Ġnishino": 5991,
      "lÆ°ng": 5992,
      "ror": 5993,
      "ime": 5994,
      "Ġving": 5995,
      "Ġconte": 5996,
      "Ġultra": 5997,
      "dÃ¢u": 5998,
      "ĠÂ": 5999,
      "ĠngÃµ": 6000,
      "Ġfda": 6001,
      "Ġscotland": 6002,
      "Ġhonda": 6003,
      "Ġeriksen": 6004,
      "spe": 6005,
      "ngháº½n": 6006,
      "Ġnghá»ĭch": 6007,
      "Ġxen": 6008,
      "nhá»©c": 6009,
      "Ġjong": 6010,
      "gÃ³i": 6011,
      "bÃ¬": 6012,
      "del": 6013,
      "lá»Ļi": 6014,
      "Ġthiago": 6015,
      "pháº¥n": 6016,
      "lui": 6017,
      "ift": 6018,
      "thá»Ŀ": 6019,
      "ason": 6020,
      "celo": 6021,
      "Ġhaver": 6022,
      "ardashian": 6023,
      "kit": 6024,
      "Ġbre": 6025,
      "Ġluá»ĵng": 6026,
      "pha": 6027,
      "ĠrÃ¹a": 6028,
      "Ġsoci": 6029,
      "thoÃ¡t": 6030,
      "cá»ĳt": 6031,
      "ĠtrÃªu": 6032,
      "Ġngáº§n": 6033,
      "Ġkhan": 6034,
      "ĠsÃ³t": 6035,
      "Ġji": 6036,
      "Ġled": 6037,
      "Ġdigi": 6038,
      "Ġmet": 6039,
      "Ġhye": 6040,
      "cÆ°á»Ŀi": 6041,
      "td": 6042,
      "Ġanfield": 6043,
      "las": 6044,
      "agen": 6045,
      "Ġukraine": 6046,
      "Ġmáº¿n": 6047,
      "Ġatt": 6048,
      "Ġligue": 6049,
      "dá»Ĺ": 6050,
      "áº¿ch": 6051,
      "Ġnobel": 6052,
      "ngáº§m": 6053,
      "ĠcÃ£i": 6054,
      "Ġjung": 6055,
      "mat": 6056,
      "Ġduyá»ĩt": 6057,
      "ĠloÃ£ng": 6058,
      "Ġzalo": 6059,
      "Ġhavertz": 6060,
      "dá»Ł": 6061,
      "sun": 6062,
      "ĠcháºŃu": 6063,
      "ami": 6064,
      "dd": 6065,
      "Ġneu": 6066,
      "ameyang": 6067,
      "hiá»ģn": 6068,
      "Ġbridge": 6069,
      "Ġdá»«a": 6070,
      "itan": 6071,
      "Ġelec": 6072,
      "Ġsara": 6073,
      "Ġmount": 6074,
      "Ġsá»¥p": 6075,
      "ĠhÃ³c": 6076,
      "Ġhoáº£": 6077,
      "Ġple": 6078,
      "ĠchuÃ´ng": 6079,
      "ĠxÄĥm": 6080,
      "Ġphá»¥ng": 6081,
      "huá»³nh": 6082,
      "ku": 6083,
      "Ġcáº¡n": 6084,
      "ise": 6085,
      "xá»©ng": 6086,
      "ĠphÃ¢": 6087,
      "air": 6088,
      "Ġheeren": 6089,
      "amford": 6090,
      "Ġrod": 6091,
      "ius": 6092,
      "Ġmik": 6093,
      "ĠchÃºa": 6094,
      "Ġmarcus": 6095,
      "pay": 6096,
      "wich": 6097,
      "ids": 6098,
      "erner": 6099,
      "Ġaubameyang": 6100,
      "op": 6101,
      "ĠÄĳiÃªu": 6102,
      "Ġcoll": 6103,
      "Ġvingroup": 6104,
      "Ġsáº»": 6105,
      "bÆ°á»Ľu": 6106,
      "Ġnhie": 6107,
      "oot": 6108,
      "ards": 6109,
      "Ġcolombia": 6110,
      "rÃło": 6111,
      "Ġrá»§": 6112,
      "36": 6113,
      "rÄĥng": 6114,
      "ĠchÃŃch": 6115,
      "ille": 6116,
      "lÃ¹ng": 6117,
      "Ġroy": 6118,
      "ey": 6119,
      "ky": 6120,
      "vÃ£": 6121,
      "ĠthÃ¡nh": 6122,
      "hÃ¡i": 6123,
      "Ġact": 6124,
      "Ġgunnar": 6125,
      "Ġnháº·t": 6126,
      "ĠhÄĳ": 6127,
      "ira": 6128,
      "Ġkháº£i": 6129,
      "hÃłm": 6130,
      "Ġbikini": 6131,
      "lÃłng": 6132,
      "Äĳáº¯c": 6133,
      "ĠÄĳun": 6134,
      "Ġadam": 6135,
      "dinh": 6136,
      "Ġcá»į": 6137,
      "dÃłnh": 6138,
      "Ġjeff": 6139,
      "Ġheerenveen": 6140,
      "Ġkiá»ģm": 6141,
      "Ġngháº¹n": 6142,
      "rá»ĵi": 6143,
      "Ġinsider": 6144,
      "Ġlaptop": 6145,
      "Ġmendy": 6146,
      "khanh": 6147,
      "dáº¡n": 6148,
      "Ġmá»ıi": 6149,
      "bert": 6150,
      "inc": 6151,
      "cá»±u": 6152,
      "Ġdá»Ł": 6153,
      "ĠÄĳá»±c": 6154,
      "Ġgiun": 6155,
      "cmp": 6156,
      "ooth": 6157,
      "mino": 6158,
      "areth": 6159,
      "Ġnav": 6160,
      "Ġroberto": 6161,
      "tá»ĳn": 6162,
      "Ġcre": 6163,
      "Ġgal": 6164,
      "ĠgáºŃy": 6165,
      "ĠbÃºp": 6166,
      "ĠquÃ¡i": 6167,
      "Ġwerner": 6168,
      "jenner": 6169,
      "Ġchina": 6170,
      "iro": 6171,
      "ĠchÃ³t": 6172,
      "cher": 6173,
      "_.": 6174,
      "vÃ¡y": 6175,
      "ngoáº·t": 6176,
      "Ġjust": 6177,
      "liá»ģn": 6178,
      "zi": 6179,
      "Ġtem": 6180,
      "Ġviá»ģn": 6181,
      "Ġháº§m": 6182,
      "thong": 6183,
      "Ġthá»ģm": 6184,
      "nger": 6185,
      "Ġhyun": 6186,
      "Ġtrá»į": 6187,
      "Ġkevin": 6188,
      "Ġjour": 6189,
      "mÅ©i": 6190,
      "ËĪ": 6191,
      "Ġbtv": 6192,
      "Äĳá»ģu": 6193,
      "ĠsÆ°á»Ŀn": 6194,
      "ĠnÆ°á»Ľng": 6195,
      "bek": 6196,
      "sÃ¡u": 6197,
      "Ġtsmc": 6198,
      "har": 6199,
      "Ġscmp": 6200,
      "Ġgates": 6201,
      "ania": 6202,
      "ĠhÃ²n": 6203,
      "ĠvÃ²i": 6204,
      "Ġngá»¡": 6205,
      "aya": 6206,
      "Ġdisney": 6207,
      "Ġsarri": 6208,
      "jung": 6209,
      "ĠlÆ°á»Ľt": 6210,
      "Ġadn": 6211,
      "sy": 6212,
      "Ġfeder": 6213,
      "Ġori": 6214,
      "Ġtm": 6215,
      "Ã¹n": 6216,
      "olas": 6217,
      "bÄĳ": 6218,
      "Ġváº¯cxin": 6219,
      "Ġpatr": 6220,
      "kin": 6221,
      "wa": 6222,
      "ĠchiÃªn": 6223,
      "kiÃªng": 6224,
      "Ġná»Ľi": 6225,
      "Ġgran": 6226,
      "Ġacad": 6227,
      "ĠnÃ©n": 6228,
      "Ġcopa": 6229,
      "ĠthÃŃnh": 6230,
      "Ġpre": 6231,
      "Ġshin": 6232,
      "ĠnhÆ°á»£c": 6233,
      "Ġbeek": 6234,
      "Ġbion": 6235,
      "bÃºt": 6236,
      "zer": 6237,
      "row": 6238,
      "Ġselfie": 6239,
      "Ġfil": 6240,
      "Ġgreal": 6241,
      "spears": 6242,
      "Ġkháº¯t": 6243,
      "cháº¡y": 6244,
      "bit": 6245,
      "mÃłi": 6246,
      "uch": 6247,
      "Äĳá»Ļt": 6248,
      "Ġgabriel": 6249,
      "Ġgrealish": 6250,
      "Ġbrook": 6251,
      "Ġetihad": 6252,
      "ĠÆ°ng": 6253,
      "nháº¡t": 6254,
      "manh": 6255,
      "Ġya": 6256,
      "Ġant": 6257,
      "Ġ300": 6258,
      "Ġbas": 6259,
      "Ġhungary": 6260,
      "Ġpaste": 6261,
      "Éª": 6262,
      "Ġgareth": 6263,
      "Ġchanel": 6264,
      "Ġmary": 6265,
      "ĠÃªkÃŃp": 6266,
      "Ġbiden": 6267,
      "ĠnhÄĥn": 6268,
      "Ġolympia": 6269,
      "Ġoliv": 6270,
      "Ġvillar": 6271,
      "tÃ´ng": 6272,
      "Ġfax": 6273,
      "bÃ£o": 6274,
      "Ġtháº±ng": 6275,
      "tha": 6276,
      "Ġwang": 6277,
      "Ġwall": 6278,
      "osh": 6279,
      "nik": 6280,
      "kháº£": 6281,
      "alanta": 6282,
      "Ġnxb": 6283,
      "fc": 6284,
      "Ġmá»ī": 6285,
      "Ġmiá»ĩt": 6286,
      "Ġsaint": 6287,
      "Ġsimon": 6288,
      "ric": 6289,
      "Ġlind": 6290,
      "Ġjones": 6291,
      "Ġcloud": 6292,
      "Ġbut": 6293,
      "thuyá»ģn": 6294,
      "Ġsteve": 6295,
      "low": 6296,
      "Ġatalanta": 6297,
      "cong": 6298,
      "Ġmass": 6299,
      "Ġsad": 6300,
      "ju": 6301,
      "Ġkhoan": 6302,
      "Ġtuo": 6303,
      "Ġaki": 6304,
      "26": 6305,
      "nn": 6306,
      "Ġdá»ĵi": 6307,
      "Ġgiáº·t": 6308,
      "muá»Ļn": 6309,
      "váº¥p": 6310,
      "Ġsiáº¿t": 6311,
      "Ġcast": 6312,
      "ráºŃp": 6313,
      "Ġforbes": 6314,
      "Ġairpo": 6315,
      "37": 6316,
      "Ġja": 6317,
      "Ġstamford": 6318,
      "Ġbts": 6319,
      "ĠlÆ°á»Ŀi": 6320,
      "ario": 6321,
      "thÃ²i": 6322,
      "ani": 6323,
      "chus": 6324,
      "Ġesp": 6325,
      "Ġireland": 6326,
      "Ġvh": 6327,
      "ĠxÃ³m": 6328,
      "ety": 6329,
      "Ġkante": 6330,
      "24": 6331,
      "ev": 6332,
      "ement": 6333,
      "Ġwalk": 6334,
      "xÃ¡t": 6335,
      "ifi": 6336,
      "urs": 6337,
      "Ġmol": 6338,
      "gas": 6339,
      "lá»±a": 6340,
      "ÉĻ": 6341,
      "cur": 6342,
      "ĠsÃ©c": 6343,
      "awa": 6344,
      "Ġblue": 6345,
      "Ġquáº¥n": 6346,
      "cam": 6347,
      "die": 6348,
      "ĠngáºŃm": 6349,
      "Ġmuang": 6350,
      "Ġalis": 6351,
      "thá»ĭnh": 6352,
      "Ġantonio": 6353,
      "Ġcom": 6354,
      "Ġsome": 6355,
      "Ġrodriguez": 6356,
      "dÃło": 6357,
      "Ġgá»Ļp": 6358,
      "ĠtÃ¡t": 6359,
      "Ġrai": 6360,
      "ito": 6361,
      "huá»ĩ": 6362,
      "ĠlÄĳbÄĳ": 6363,
      "Ġláº¯c": 6364,
      "Ġtab": 6365,
      "Ġgeorge": 6366,
      "Ġbiss": 6367,
      "Ġgon": 6368,
      "Ġuz": 6369,
      "Ġsha": 6370,
      "dowski": 6371,
      "Ġvina": 6372,
      "Ġlac": 6373,
      "Ġchil": 6374,
      "chen": 6375,
      "etts": 6376,
      "Ġngoa": 6377,
      "rá»ķ": 6378,
      "Ġdáº»o": 6379,
      "vc": 6380,
      "Ġpasteur": 6381,
      "ĠsÃ¡p": 6382,
      "ido": 6383,
      "Ġspace": 6384,
      "Ġsiu": 6385,
      "Ġflash": 6386,
      "Ġheo": 6387,
      "Ġkylian": 6388,
      "ox": 6389,
      "Äĳáº¡c": 6390,
      "Ġrong": 6391,
      "Ġlogic": 6392,
      "Ġtháº§m": 6393,
      "Ġpul": 6394,
      "Ġcuá»ĵng": 6395,
      "Ġmassa": 6396,
      "Ġgáº¯ng": 6397,
      "Ġcoun": 6398,
      "Ġvillarreal": 6399,
      "wat": 6400,
      "Ġboston": 6401,
      "kardashian": 6402,
      "Ġsá»Łi": 6403,
      "baba": 6404,
      "ior": 6405,
      "Ġngáº§m": 6406,
      "ĠchÃ¨o": 6407,
      "Ġfirmino": 6408,
      "láº¡p": 6409,
      "sá»ĳt": 6410,
      "ffield": 6411,
      "Ġcap": 6412,
      "ila": 6413,
      "bá»Ļi": 6414,
      "Ġnhá»©c": 6415,
      "Ġleeds": 6416,
      "Ġpower": 6417,
      "Ġjournal": 6418,
      "bÃŃ": 6419,
      "ĠliÃªm": 6420,
      "Ġvest": 6421,
      "ĠsÃ¡nh": 6422,
      "ĠsÃ©t": 6423,
      "trÃ¡ng": 6424,
      "ington": 6425,
      "Ġarnold": 6426,
      "Ġkáº½m": 6427,
      "Ġakira": 6428,
      "Ġbissaka": 6429,
      "ĠtÃł": 6430,
      "Ġmáº¯ng": 6431,
      "Ġmap": 6432,
      "Ġsir": 6433,
      "Ã²m": 6434,
      "wandowski": 6435,
      "dÆ°": 6436,
      "Ġgang": 6437,
      "á»§a": 6438,
      "Ġdang": 6439,
      "Ġchoi": 6440,
      "Ġment": 6441,
      "chan": 6442,
      "Ġmike": 6443,
      "luÃ´n": 6444,
      "Ġpiano": 6445,
      "Ġwell": 6446,
      "Ġback": 6447,
      "ĠkiÃª": 6448,
      "Ġsheffield": 6449,
      "kok": 6450,
      "link": 6451,
      "yu": 6452,
      "nhÃ¡nh": 6453,
      "rio": 6454,
      "ĠgÃ¢n": 6455,
      "ĠáºŃp": 6456,
      "Ġia": 6457,
      "Ġgor": 6458,
      "Ġaud": 6459,
      "kins": 6460,
      "Ġllor": 6461,
      "Ġtháº¡nh": 6462,
      "ĠphÃ¬nh": 6463,
      "Ġapollo": 6464,
      "ĠlÃ³t": 6465,
      "Ġhal": 6466,
      "ĠrÃ¡t": 6467,
      "international": 6468,
      "Ġhighlights": 6469,
      "her": 6470,
      "Ġngháº¹t": 6471,
      "beckham": 6472,
      "Ġselena": 6473,
      "káº¹t": 6474,
      "ĠÆ°á»Ľt": 6475,
      "Ġmb": 6476,
      "buá»ĵn": 6477,
      "Ġnorth": 6478,
      "Ġarteta": 6479,
      "Ġalisson": 6480,
      "hol": 6481,
      "Ġngoáº¡n": 6482,
      "xo": 6483,
      "Ġls": 6484,
      "Ġgá»«ng": 6485,
      "ĠnghiÃª": 6486,
      "Ġlewandowski": 6487,
      "Ġláº·n": 6488,
      "Æ°á»Ŀm": 6489,
      "Ġblog": 6490,
      "Ġairpods": 6491,
      "ngáº¡c": 6492,
      "Ġcard": 6493,
      "Ġmassachus": 6494,
      "Ġpos": 6495,
      "tru": 6496,
      "ĠtÃ³m": 6497,
      "ĠlÃ¢": 6498,
      "phu": 6499,
      "Ġum": 6500,
      "bekistan": 6501,
      "ĠÃªm": 6502,
      "Ġlife": 6503,
      "Ġnghiá»ĩm": 6504,
      "Ġburi": 6505,
      "Ġash": 6506,
      "Ġalibaba": 6507,
      "Ġphiá»ģn": 6508,
      "Ġ400": 6509,
      "kiá»ĥm": 6510,
      "idi": 6511,
      "Ġrichard": 6512,
      "Ġuzbekistan": 6513,
      "ĠgÄĥng": 6514,
      "tum": 6515,
      "Ġ2021": 6516,
      "Ġalexis": 6517,
      "may": 6518,
      "tÆ°Æ¡i": 6519,
      "Ġusb": 6520,
      "Ġah": 6521,
      "Ġkhá»ī": 6522,
      "Ġbluet": 6523,
      "guay": 6524,
      "Ġclub": 6525,
      "Ġpra": 6526,
      "ican": 6527,
      "Ġmuangthong": 6528,
      "Ġvá»ĭnh": 6529,
      "Ġlá»¯": 6530,
      "Ġhow": 6531,
      "ĠtrÆ¡": 6532,
      "Ġuru": 6533,
      "Ġwork": 6534,
      "Ġjin": 6535,
      "cÃ¢u": 6536,
      "ĠtrÃ¢u": 6537,
      "Ġphen": 6538,
      "Ġbluetooth": 6539,
      "má»©c": 6540,
      "sáº£ng": 6541,
      "Ġgáº¡t": 6542,
      "láº¯k": 6543,
      "ĠlÆ°": 6544,
      "okovic": 6545,
      "Ġbour": 6546,
      "Ġlady": 6547,
      "huyá»ĩn": 6548,
      "Äĳáº§y": 6549,
      "Ġuruguay": 6550,
      "ken": 6551,
      "ĠÄĳáº¡n": 6552,
      "Ġkhuáº¥t": 6553,
      "aki": 6554,
      "ĠâĢĭâĢĭ": 6555,
      "báº§u": 6556,
      "Ġxá»ĭt": 6557,
      "amo": 6558,
      "Ġsá»¥n": 6559,
      "Ġzhang": 6560,
      "Ġmassachusetts": 6561,
      "Ġdjokovic": 6562,
      "Ġtáº£o": 6563,
      "Ġmirror": 6564,
      "ĠâĢ¢": 6565,
      "Ġ60": 6566,
      "alty": 6567,
      "Ġtimo": 6568,
      "phiá»ģn": 6569,
      "hoáº¡i": 6570,
      "dric": 6571,
      "chÃ¡nh": 6572,
      "tháº¡nh": 6573,
      "isic": 6574,
      "ÄĳáºŃu": 6575,
      "Ġsin": 6576,
      "khoáº¯n": 6577,
      "lÃŃ": 6578,
      "xÆ°Æ¡ng": 6579,
      "ĠvÃ¡": 6580,
      "Ġgot": 6581,
      "ĠxÃ³t": 6582,
      "pho": 6583,
      "Ġeden": 6584,
      "28": 6585,
      "nhÆ°á»£c": 6586,
      "Ġav": 6587,
      "ĠthÃªu": 6588,
      "Ġflc": 6589,
      "Ġrmit": 6590,
      "Ġtoáº£n": 6591,
      "bÃłng": 6592,
      "ĠxÃ©": 6593,
      "Ġluá»Ļc": 6594,
      "Ġkiatisuk": 6595,
      "xÆ°á»Łng": 6596,
      "ĠmÆ°u": 6597,
      "ĠsÃ¢m": 6598,
      "Ġtháº¯p": 6599,
      "95": 6600,
      "kÃŃn": 6601,
      "miá»ģn": 6602,
      "Ġná»©t": 6603,
      "hÃ´m": 6604,
      "ii": 6605,
      "Ġbá»Ļi": 6606,
      "Ġngá»ı": 6607,
      "rÃ©t": 6608,
      "Ġnhá»ĭn": 6609,
      "ĠnÆ¡": 6610,
      "ĠhÆ¡": 6611,
      "Ġdong": 6612,
      "thá»©": 6613,
      "Ġligt": 6614,
      "ĠcÆ°á»¡ng": 6615,
      "Ġsáº¿p": 6616,
      "ĠghÃ©": 6617,
      "Ġthá»ı": 6618,
      "Ġmatt": 6619,
      "Ġbrunei": 6620,
      "Ġoled": 6621,
      "ĠlÃ£i": 6622,
      "Ġbangkok": 6623,
      "bourne": 6624,
      "ĠthiÃª": 6625,
      "times": 6626,
      "Ġibra": 6627,
      "ĠÄĳá»¥c": 6628,
      "bÃŃch": 6629,
      "ĠsuÃ´n": 6630,
      "ks": 6631,
      "lÄĥng": 6632,
      "Ġlab": 6633,
      "ball": 6634,
      "chÃ¬": 6635,
      "Ġtrick": 6636,
      "Ġjesus": 6637,
      "chat": 6638,
      "suá»ĳt": 6639,
      "Ġkáº¹o": 6640,
      "Ġduhoc": 6641,
      "ĠphÃłn": 6642,
      "Ġyong": 6643,
      "ĠbÃ¹n": 6644,
      "eira": 6645,
      "lÃ´ng": 6646,
      "cháº±ng": 6647,
      "Ġep": 6648,
      "igan": 6649,
      "vÃ´": 6650,
      "Ġstre": 6651,
      "ĠchÃ¡o": 6652,
      "dom": 6653,
      "Ġsuit": 6654,
      "Ġshop": 6655,
      "Ġburiram": 6656,
      "lad": 6657,
      "Ġhailey": 6658,
      "Ġpenalty": 6659,
      "ĠgÃµ": 6660,
      "Ġenter": 6661,
      "Ġrao": 6662,
      "Ġrá»ĵng": 6663,
      "ĠnhÃłm": 6664,
      "view": 6665,
      "96": 6666,
      "Ġroman": 6667,
      "38": 6668,
      "Ġváº·t": 6669,
      "Ġpay": 6670,
      "Ġaaron": 6671,
      "ĠvuÃ´ng": 6672,
      "tÃªn": 6673,
      "west": 6674,
      "Ġkate": 6675,
      "Ġcode": 6676,
      "iller": 6677,
      "tá»©": 6678,
      "eic": 6679,
      "ĠÃ³i": 6680,
      "Ġbrand": 6681,
      "dum": 6682,
      "Ġgáº¯p": 6683,
      "wang": 6684,
      "ĠÄĳáº¥m": 6685,
      "váº¯ng": 6686,
      "ĠmÃ¹ng": 6687,
      "ĠsÃ¡n": 6688,
      "ĠnÃ¡t": 6689,
      "ĠhÆ°Æ¡": 6690,
      "ĠtrÆ¡n": 6691,
      "Ġig": 6692,
      "cáº£i": 6693,
      "Ġchang": 6694,
      "thÃ¡nh": 6695,
      "ĠlÃºng": 6696,
      "Ġslo": 6697,
      "ĠquÃ¢y": 6698,
      "Ġ28": 6699,
      "ĠtrÃ¢m": 6700,
      "Ġtuá»ĩ": 6701,
      "hoo": 6702,
      "rez": 6703,
      "Ġdigital": 6704,
      "Ġbáº§m": 6705,
      "Ġcatalan": 6706,
      "tÃ¡ng": 6707,
      "Ġion": 6708,
      "Ġwhite": 6709,
      "Ġmacbook": 6710,
      "lia": 6711,
      "Ġtiá»ħn": 6712,
      "oc": 6713,
      "Ġtalk": 6714,
      "Ġgirl": 6715,
      "Ġhuye": 6716,
      "Ġdragon": 6717,
      "Ġstanford": 6718,
      "Ġkep": 6719,
      "chai": 6720,
      "Ġthá»Ŀ": 6721,
      "Ġdior": 6722,
      "Ġros": 6723,
      "Ġmodric": 6724,
      "show": 6725,
      "wo": 6726,
      "ĠxÃ¡ch": 6727,
      "Ġ26": 6728,
      "nÃłnh": 6729,
      "ĠÄĳÃºc": 6730,
      "ela": 6731,
      "Ġsyria": 6732,
      "quin": 6733,
      "Ġmarie": 6734,
      "pol": 6735,
      "tÃŃ": 6736,
      "Ġbest": 6737,
      "Ġkro": 6738,
      "tomin": 6739,
      "Ġsexy": 6740,
      "Ġpaulo": 6741,
      "Ġlapor": 6742,
      "Ġay": 6743,
      "nho": 6744,
      "Ġjorg": 6745,
      "Ġerling": 6746,
      "Ġmelbourne": 6747,
      "Ġton": 6748,
      "Ġvtc": 6749,
      "trÃ¢m": 6750,
      "lÃºc": 6751,
      "Ġluke": 6752,
      "Ġchua": 6753,
      "Ġdá»Ļi": 6754,
      "chÃ¡n": 6755,
      "get": 6756,
      "pop": 6757,
      "grand": 6758,
      "Ġjamie": 6759,
      "bra": 6760,
      "Ġvus": 6761,
      "Ġpap": 6762,
      "Ġquá»³": 6763,
      "els": 6764,
      "Ġxoáº¯n": 6765,
      "Ġperu": 6766,
      "mÃ¹a": 6767,
      "ngá»ı": 6768,
      "Ġhoan": 6769,
      "tois": 6770,
      "Ġsuá»ĳi": 6771,
      "Ġjorginho": 6772,
      "tae": 6773,
      "Ġstem": 6774,
      "utnik": 6775,
      "Ġlindel": 6776,
      "tominay": 6777,
      "cá»Ļi": 6778,
      "nan": 6779,
      "táº¥u": 6780,
      "ĠbÄĥ": 6781,
      "Ġlá»Ļi": 6782,
      "ima": 6783,
      "Ġsoft": 6784,
      "eller": 6785,
      "Ġmctominay": 6786,
      "Ġwilliams": 6787,
      "Ġcosta": 6788,
      "Ġwatford": 6789,
      "phÃ¡i": 6790,
      "Ġphá»ĵng": 6791,
      "Ġtoday": 6792,
      "Ġsputnik": 6793,
      "Ġinfo": 6794,
      "ĠthuyÃªn": 6795,
      "ather": 6796,
      "Ġná»ĵi": 6797,
      "Ġdiv": 6798,
      "giÃ²": 6799,
      "ific": 6800,
      "Ġxh": 6801,
      "Ġtoeic": 6802,
      "ĠÄĳuá»ĳi": 6803,
      "Ġgiam": 6804,
      "Ġwij": 6805,
      "ĠlÃ¡t": 6806,
      "ĠlÄĥk": 6807,
      "Ġdá»Ŀi": 6808,
      "Ġphom": 6809,
      "ĠtuÃ½": 6810,
      "Ġdeep": 6811,
      "Ġlindelof": 6812,
      "ĠkÃ¬m": 6813,
      "Ġthuá»Ł": 6814,
      "esh": 6815,
      "Ġmatic": 6816,
      "Ġcourtois": 6817,
      "dong": 6818,
      "dis": 6819,
      "káº½": 6820,
      "par": 6821,
      "Ġsv": 6822,
      "chá»£": 6823,
      "cer": 6824,
      "Ġbá»į": 6825,
      "Ġrice": 6826,
      "Ġann": 6827,
      "ĠtoÃ¡t": 6828,
      "ako": 6829,
      "tainment": 6830,
      "trá»į": 6831,
      "giÃª": 6832,
      "ĠqÄĳ": 6833,
      "Ġmentor": 6834,
      "Ġvalen": 6835,
      "Ġfrancis": 6836,
      "Ġscott": 6837,
      "Ġcer": 6838,
      "hop": 6839,
      "bro": 6840,
      "ngÃłng": 6841,
      "ÄĳÃºc": 6842,
      "Ġnhá»įn": 6843,
      "Ġdal": 6844,
      "fast": 6845,
      "sÆ°á»Ľng": 6846,
      "tÃºi": 6847,
      "48": 6848,
      "ĠsáºŃp": 6849,
      "Ġexpress": 6850,
      "Ġ27": 6851,
      "Ġdani": 6852,
      "55": 6853,
      "Ġbáº§y": 6854,
      "Ġkn": 6855,
      "Ġmont": 6856,
      "woo": 6857,
      "Ġka": 6858,
      "ĠxÆ°á»Łng": 6859,
      "rome": 6860,
      "Ġibrahim": 6861,
      "ĠvÃ¢y": 6862,
      "á»ĩm": 6863,
      "bá»įt": 6864,
      "Ġbie": 6865,
      "Ġwifi": 6866,
      "toster": 6867,
      "Ġxua": 6868,
      "Ġmohamed": 6869,
      "kÃ¬": 6870,
      "pend": 6871,
      "xÆ°á»Ľng": 6872,
      "Ġtb": 6873,
      "Ġvá»įng": 6874,
      "Ġthun": 6875,
      "Ġaward": 6876,
      "Ġcarol": 6877,
      "Ġbody": 6878,
      "ĠkÃ¬": 6879,
      "Ġphone": 6880,
      "Ġemma": 6881,
      "Ġchuá»Ļng": 6882,
      "Ġkhá»ĳc": 6883,
      "lyn": 6884,
      "ná»Ĺi": 6885,
      "Ġev": 6886,
      "Ġtvb": 6887,
      "Ġroberts": 6888,
      "dar": 6889,
      "Ġbez": 6890,
      "Ġdá»ĩt": 6891,
      "Ġquai": 6892,
      "Ġquáº¡t": 6893,
      "Ġarm": 6894,
      "cá»Ńu": 6895,
      "Ġthen": 6896,
      "Ġráº£i": 6897,
      "ction": 6898,
      "dÆ°á»Ľi": 6899,
      "mÃºa": 6900,
      "covax": 6901,
      "Ġthiá»ģn": 6902,
      "Ġbá»ķng": 6903,
      "Ġbka": 6904,
      "Ġview": 6905,
      "mÃ²n": 6906,
      "Ġká»ģn": 6907,
      "ĠphÃŃm": 6908,
      "Ġstart": 6909,
      "cÃ¡t": 6910,
      "tang": 6911,
      "Ġtn": 6912,
      "Ġraf": 6913,
      "Ġcuá»Ļn": 6914,
      "Ġinf": 6915,
      "Ġfound": 6916,
      "nem": 6917,
      "Æ¡m": 6918,
      "thá»ĳn": 6919,
      "ĠhÃ´i": 6920,
      "naldum": 6921,
      "Ġvinaphone": 6922,
      "hÃ£": 6923,
      "ovac": 6924,
      "Ġghz": 6925,
      "eet": 6926,
      "Ġcd": 6927,
      "Ġnháº£": 6928,
      "Ġnanocovax": 6929,
      "Ġkanye": 6930,
      "bÃ£": 6931,
      "ká»ģn": 6932,
      "Ġná»ĥ": 6933,
      "Ġchui": 6934,
      "lopez": 6935,
      "edes": 6936,
      "mal": 6937,
      "Äĳá»įng": 6938,
      "Ġpenn": 6939,
      "Ġoh": 6940,
      "Ġnhai": 6941,
      "á»Ńng": 6942,
      "eld": 6943,
      "Ġtouch": 6944,
      "ages": 6945,
      "Ġwijnaldum": 6946,
      "ĠÃ³": 6947,
      "ĠoÃł": 6948,
      "Ġpier": 6949,
      "Ġdre": 6950,
      "Ġabc": 6951,
      "Ġmoney": 6952,
      "Ġgucci": 6953,
      "ĠkÃ¬nh": 6954,
      "Ġtá»¥c": 6955,
      "chá»įi": 6956,
      "vir": 6957,
      "hrain": 6958,
      "Ġcle": 6959,
      "Äĳai": 6960,
      "Ġpress": 6961,
      "mega": 6962,
      "ĠhcÄĳ": 6963,
      "ĠtÃºc": 6964,
      "tráº·c": 6965,
      "hao": 6966,
      "lÅ©ng": 6967,
      "Ġnhá»ĩn": 6968,
      "cha": 6969,
      "dan": 6970,
      "mus": 6971,
      "nÃ©t": 6972,
      "you": 6973,
      "ĠtÆ°á»Ľi": 6974,
      "try": 6975,
      "ĠxÃ¡o": 6976,
      "Ġbahrain": 6977,
      "Ġbhl": 6978,
      "ĠxÃŃch": 6979,
      "earch": 6980,
      "Ġcovax": 6981,
      "Ġmetro": 6982,
      "Ġsett": 6983,
      "Ġáº¥u": 6984,
      "khiáº¿p": 6985,
      "uni": 6986,
      "Ġwillian": 6987,
      "ĠtÆ°á»Ľc": 6988,
      "Ãºn": 6989,
      "Ġbuv": 6990,
      "nemouth": 6991,
      "iti": 6992,
      "dáºŃp": 6993,
      "ways": 6994,
      "Ġlhp": 6995,
      "Ġchá»įi": 6996,
      "Ġchá»īn": 6997,
      "phÃŃm": 6998,
      "berry": 6999,
      "model": 7000,
      "dine": 7001,
      "oren": 7002,
      "ign": 7003,
      "ips": 7004,
      "Ġxoang": 7005,
      "Ġomega": 7006,
      "ces": 7007,
      "Ġtáº£": 7008,
      "Ġkali": 7009,
      "Ġandrew": 7010,
      "Ġbournemouth": 7011,
      "gáº¯m": 7012,
      "lt": 7013,
      "lá»©a": 7014,
      "set": 7015,
      "Ġkeo": 7016,
      "Ġnational": 7017,
      "ĠÄĳá»Ŀ": 7018,
      "ĠhuÃ¢n": 7019,
      "lÃ¡nh": 7020,
      "Ġviáº¿ng": 7021,
      "Ġxá»ī": 7022,
      "Ġcolor": 7023,
      "Ġutd": 7024,
      "form": 7025,
      "Ġwoodward": 7026,
      "68": 7027,
      "Ġá»©": 7028,
      "Ġneo": 7029,
      "ĠdÃ©p": 7030,
      "alle": 7031,
      "list": 7032,
      "mad": 7033,
      "sÃ¢m": 7034,
      "Ġthung": 7035,
      "Ġchic": 7036,
      "Æ°á»Ľm": 7037,
      "Ġmusic": 7038,
      "nhÃłn": 7039,
      "Ġcover": 7040,
      "Ġok": 7041,
      "ĠchÃ©n": 7042,
      "lau": 7043,
      "nÃ´ng": 7044,
      "tÃª": 7045,
      "Ġfri": 7046,
      "Ġnhuá»Ļm": 7047,
      "Ġjuan": 7048,
      "Ġmassage": 7049,
      "cÃ´i": 7050,
      "váº½": 7051,
      "Ġsus": 7052,
      "Ġkey": 7053,
      "chÆ°á»Ľc": 7054,
      "chÃ¡u": 7055,
      "giáº¥c": 7056,
      "Ġdown": 7057,
      "Ġfrom": 7058,
      "Ġbkav": 7059,
      "Ľt": 7060,
      "ĠhÃ©t": 7061,
      "tom": 7062,
      "seo": 7063,
      "ĠmÄĥ": 7064,
      "ĠdoÃ£n": 7065,
      "Ġlogo": 7066,
      "lum": 7067,
      "Ġvinschool": 7068,
      "lá»¥t": 7069,
      "ĠbÃ³p": 7070,
      "Ġbif": 7071,
      "Ġgmail": 7072,
      "thing": 7073,
      "ador": 7074,
      "Ġwalker": 7075,
      "Ġted": 7076,
      "ese": 7077,
      "xÃª": 7078,
      "ĠláºŃu": 7079,
      "á»Ńu": 7080,
      "Ġsex": 7081,
      "plus": 7082,
      "gÃłng": 7083,
      "ness": 7084,
      "Ġten": 7085,
      "ĠdÃ²": 7086,
      "khoÃ¡n": 7087,
      "Ġelectron": 7088,
      "láº·p": 7089,
      "ett": 7090,
      "verde": 7091,
      "Ġbezos": 7092,
      "Ġpri": 7093,
      "Ġráº¡n": 7094,
      "elu": 7095,
      "Ġtestoster": 7096,
      "shire": 7097,
      "esa": 7098,
      "joon": 7099,
      "arl": 7100,
      "Ġivan": 7101,
      "khoÃ¡ng": 7102,
      "irates": 7103,
      "2021": 7104,
      "Ġresearch": 7105,
      "ĠsÃºc": 7106,
      "Ġháº¯t": 7107,
      "Ġ35": 7108,
      "Ġchrome": 7109,
      "Ġporto": 7110,
      "Ġ._": 7111,
      "ĠchÆ°á»Ľng": 7112,
      "luá»ĵng": 7113,
      "Ġacademy": 7114,
      "ux": 7115,
      "onia": 7116,
      "Ġyemen": 7117,
      "Ġshar": 7118,
      "mÃ¹": 7119,
      "Ġkelly": 7120,
      "pro": 7121,
      "qi": 7122,
      "Ġfold": 7123,
      "Ġgbp": 7124,
      "amb": 7125,
      "Ġstreet": 7126,
      "ĠsÃłnh": 7127,
      "Ġelle": 7128,
      "Ġtype": 7129,
      "há»ıng": 7130,
      "ĠvÃ²m": 7131,
      "Ġtechnology": 7132,
      "gá»Ńi": 7133,
      "ĠtrÃ¡n": 7134,
      "ulin": 7135,
      "Ġfirst": 7136,
      "cáº¥y": 7137,
      "Äĳuá»ĳi": 7138,
      "Ġcá»«": 7139,
      "phen": 7140,
      "Ġfull": 7141,
      "ado": 7142,
      "bÃ©n": 7143,
      "Ġprinc": 7144,
      "Ġandrea": 7145,
      "av": 7146,
      "gre": 7147,
      "Ġbá»ĵng": 7148,
      "quáºŃt": 7149,
      "Ġranh": 7150,
      "Ġbeau": 7151,
      "Ġvalverde": 7152,
      "por": 7153,
      "Ġbat": 7154,
      "ĠmÃ³c": 7155,
      "Ġglu": 7156,
      "agu": 7157,
      "ĠÄĳhqg": 7158,
      "Ġfulham": 7159,
      "Ġtestosterone": 7160,
      "Ġend": 7161,
      "ĠtriÃª": 7162,
      "Ġsá»«ng": 7163,
      "khiáº¿t": 7164,
      "Ġyang": 7165,
      "Ġdáº¥y": 7166,
      "Ġkroos": 7167,
      "ee": 7168,
      "Ġraph": 7169,
      "Ġjoong": 7170,
      "ruá»Ļt": 7171,
      "Ġcháº¯n": 7172,
      "ĠcÃµ": 7173,
      "má»ī": 7174,
      "ĠbÆ°á»Ľu": 7175,
      "Ġká»ĩ": 7176,
      "Ì£ÌĨ": 7177,
      "Ġmata": 7178,
      "war": 7179,
      "Ġray": 7180,
      "Ġrol": 7181,
      "Ġvirgin": 7182,
      "ryan": 7183,
      "depend": 7184,
      "din": 7185,
      "Ġjang": 7186,
      "iku": 7187,
      "Ġjunior": 7188,
      "ĠÃ": 7189,
      "ĠgÄĳ": 7190,
      "Ġ80": 7191,
      "Ġing": 7192,
      "Ġinto": 7193,
      "Ġaids": 7194,
      "Ġangeles": 7195,
      "ĠrÃ¢": 7196,
      "Ġvá»ĭt": 7197,
      "gus": 7198,
      "Ġsem": 7199,
      "ĠnhÆ¡n": 7200,
      "eno": 7201,
      "Ġwr": 7202,
      "swift": 7203,
      "Ġmikel": 7204,
      "oai": 7205,
      "von": 7206,
      "ĠtrÃºt": 7207,
      "Ġtua": 7208,
      "ngoan": 7209,
      "láº«y": 7210,
      "ĠchiÃªm": 7211,
      "kháº£i": 7212,
      "Ġway": 7213,
      "Ġmorata": 7214,
      "Ġbá»ĳt": 7215,
      "ĠtrÄ©": 7216,
      "Ġdar": 7217,
      "Ġgameshow": 7218,
      "bus": 7219,
      "ĠtÆ°á»Ľng": 7220,
      "gp": 7221,
      "ize": 7222,
      "Ġrud": 7223,
      "bt": 7224,
      "cert": 7225,
      "tar": 7226,
      "ĠngÃ¢y": 7227,
      "Ġphanh": 7228,
      "Ġstate": 7229,
      "time": 7230,
      "soo": 7231,
      "ĠtrÃłng": 7232,
      "Ġrb": 7233,
      "Ġread": 7234,
      "Ġshb": 7235,
      "ĠnÄĳ": 7236,
      "Ġdl": 7237,
      "tam": 7238,
      "Ġplan": 7239,
      "Ġleonardo": 7240,
      "Ġcand": 7241,
      "Ġdoáº¡": 7242,
      "leg": 7243,
      "Ġob": 7244,
      "Ġchicago": 7245,
      "ald": 7246,
      "Ġjess": 7247,
      "xÃŃch": 7248,
      "Ġbá»Ńu": 7249,
      "Ġbox": 7250,
      "Ġosaka": 7251,
      "gomez": 7252,
      "Ġkáº¹t": 7253,
      "truyá»ĩn": 7254,
      "chÃ¡y": 7255,
      "Ġcá»Ńu": 7256,
      "Ġstegen": 7257,
      "Ġamerican": 7258,
      "900": 7259,
      "ngÃ´": 7260,
      "ĠtÃ¡": 7261,
      "Ġteo": 7262,
      "Ġbg": 7263,
      "una": 7264,
      "Ġcannes": 7265,
      "Ġtorres": 7266,
      "cÆ¡n": 7267,
      "dwin": 7268,
      "Ġcort": 7269,
      "Ġsáº¯m": 7270,
      "trá»ħ": 7271,
      "Ġemirates": 7272,
      "Ġcnbc": 7273,
      "pal": 7274,
      "Ġtd": 7275,
      "quáº§n": 7276,
      "Ġdrone": 7277,
      "Ġnations": 7278,
      "uela": 7279,
      "siÃªu": 7280,
      "ition": 7281,
      "ĠtuÃ½p": 7282,
      "tÃ²i": 7283,
      "ĠhÃ¡i": 7284,
      "ivir": 7285,
      "ebe": 7286,
      "mec": 7287,
      "biot": 7288,
      "dependent": 7289,
      "fri": 7290,
      "fest": 7291,
      "Ġchay": 7292,
      "Ġeas": 7293,
      "Ġthey": 7294,
      "Ġbolero": 7295,
      "Ġcs": 7296,
      "Ġlogist": 7297,
      "Ġgrammy": 7298,
      "ĠvÃ¹i": 7299,
      "Ġrá»ħ": 7300,
      "Ġak": 7301,
      "thuá»µ": 7302,
      "Ġcenter": 7303,
      "ĠkhÆ°Æ¡ng": 7304,
      "Ġvsmart": 7305,
      "98": 7306,
      "gram": 7307,
      "kus": 7308,
      "Ġmanh": 7309,
      "78": 7310,
      "Ġá»ĵ": 7311,
      "Ġkt": 7312,
      "Ġngá»Ńa": 7313,
      "Ġhapp": 7314,
      "Ġcarr": 7315,
      "Ġkop": 7316,
      "nang": 7317,
      "rá»Ĺi": 7318,
      "Ġlá»Ļn": 7319,
      "Ġmur": 7320,
      "Ġchuye": 7321,
      "máº«n": 7322,
      "Ġjean": 7323,
      "xÃ´i": 7324,
      "Ġarena": 7325,
      "Ġronald": 7326,
      "Ġicu": 7327,
      "itz": 7328,
      "Ġqs": 7329,
      "Ġsqu": 7330,
      "Ġjon": 7331,
      "Ġhcb": 7332,
      "cret": 7333,
      "thanol": 7334,
      "Ġpedro": 7335,
      "cen": 7336,
      "Ġbeta": 7337,
      "Ġcut": 7338,
      "Ġliu": 7339,
      "play": 7340,
      "mark": 7341,
      "ĠvÆ°": 7342,
      "Ġkou": 7343,
      "Ġráº½": 7344,
      "Ġxiáº¿c": 7345,
      "Ġhoáº¡ch": 7346,
      "ott": 7347,
      "hadid": 7348,
      "ĠsvÄĳ": 7349,
      "Ġnature": 7350,
      "Ġsettings": 7351,
      "ĠbÆ°á»Łi": 7352,
      "Ġmá»īm": 7353,
      "Ġá»ĳi": 7354,
      "Ġund": 7355,
      "Äĳoan": 7356,
      "inedine": 7357,
      "estern": 7358,
      "Ġbt": 7359,
      "Ġnd": 7360,
      "tral": 7361,
      "pháº³ng": 7362,
      "Ġhop": 7363,
      "ĠhÃª": 7364,
      "Ġ32": 7365,
      "Ġkepa": 7366,
      "65": 7367,
      "ĠÄĳáº¯ng": 7368,
      "Ġbold": 7369,
      "Ġlet": 7370,
      "ĠmÆ°á»£t": 7371,
      "Ġear": 7372,
      "cou": 7373,
      "cd": 7374,
      "rá»Ńa": 7375,
      "ĠÃŃch": 7376,
      "Ġhk": 7377,
      "ator": 7378,
      "ezuela": 7379,
      "Ġtelegraph": 7380,
      "pus": 7381,
      "nghÃ¨o": 7382,
      "Ġthy": 7383,
      "Ġhak": 7384,
      "ora": 7385,
      "khuÃª": 7386,
      "tÃ¡i": 7387,
      "Ġváº£y": 7388,
      "Ġbst": 7389,
      "Ġdol": 7390,
      "ogo": 7391,
      "ghan": 7392,
      "vuÃ´ng": 7393,
      "tor": 7394,
      "Ġkap": 7395,
      "Ġrá»Ľt": 7396,
      "Ġfal": 7397,
      "Ġdá»¥c": 7398,
      "Ġeb": 7399,
      "rera": 7400,
      "Ġstudy": 7401,
      "Ġnáº¯p": 7402,
      "Ġjohnny": 7403,
      "fan": 7404,
      "nÆ°á»Ľng": 7405,
      "Ġmak": 7406,
      "tek": 7407,
      "rich": 7408,
      "lÄĥn": 7409,
      "sÃ¢n": 7410,
      "Ġlat": 7411,
      "Ġgiu": 7412,
      "Ġfati": 7413,
      "rÃ£": 7414,
      "cáº©m": 7415,
      "sai": 7416,
      "váº¿t": 7417,
      "ĠtáºŃt": 7418,
      "Ġkal": 7419,
      "Ġnow": 7420,
      "Ġmotor": 7421,
      "Ġyahoo": 7422,
      "yn": 7423,
      "Ġble": 7424,
      "Ġmesse": 7425,
      "Ġspurs": 7426,
      "ville": 7427,
      "Ġles": 7428,
      "ĠrÃ²ng": 7429,
      "Ġsoph": 7430,
      "Ġidp": 7431,
      "ĠcuÃ´": 7432,
      "Ġ150": 7433,
      "Ġzinedine": 7434,
      "cuá»ĳi": 7435,
      "bá»©c": 7436,
      "quÃ©t": 7437,
      "edia": 7438,
      "zu": 7439,
      "Ġlá»Ļng": 7440,
      "Ġdáº¯t": 7441,
      "Ġrakit": 7442,
      "Ġkhá»©": 7443,
      "Ġindependent": 7444,
      "Ġkylie": 7445,
      "tedance": 7446,
      "Ġnadal": 7447,
      "mos": 7448,
      "Ġlung": 7449,
      "Ġcá»©a": 7450,
      "Ġanna": 7451,
      "toph": 7452,
      "fashion": 7453,
      "gate": 7454,
      "tá»±a": 7455,
      "Ġfre": 7456,
      "Ġnorwich": 7457,
      "xáº£o": 7458,
      "nhá»ĭp": 7459,
      "Ġfar": 7460,
      "Ġrep": 7461,
      "ova": 7462,
      "Ġsolo": 7463,
      "Ġnai": 7464,
      "ĠrÃ£": 7465,
      "Ġmessenger": 7466,
      "toÃł": 7467,
      "Ġphe": 7468,
      "Ġgieo": 7469,
      "Ġbytedance": 7470,
      "Ġkatie": 7471,
      "¹m": 7472,
      "ngáºŃp": 7473,
      "Ġcháº£nh": 7474,
      "ĠvÃµng": 7475,
      "Ġbritish": 7476,
      "ns": 7477,
      "ná»Ļ": 7478,
      "Ġdram": 7479,
      "Ġluka": 7480,
      "aser": 7481,
      "bach": 7482,
      "Ġbillboard": 7483,
      "náº£n": 7484,
      "Ġbai": 7485,
      "box": 7486,
      "Ġabd": 7487,
      "Ġvenezuela": 7488,
      "má»¡": 7489,
      "Ġtenn": 7490,
      "ĠcÃłnh": 7491,
      "trÃ£i": 7492,
      "Ġrakitic": 7493,
      "Ġtenc": 7494,
      "Ġvnvc": 7495,
      "bá»ī": 7496,
      "tch": 7497,
      "yd": 7498,
      "Ġtao": 7499,
      "Ġboo": 7500,
      "imer": 7501,
      "fu": 7502,
      "Ġá»£": 7503,
      "ĠquÃ´": 7504,
      "Ġwu": 7505,
      "Ġducanh": 7506,
      "otti": 7507,
      "Ġvinuni": 7508,
      "ĠËĪ": 7509,
      "Ġvuá»ĳt": 7510,
      "á»¥p": 7511,
      "Ġcoin": 7512,
      "Ġluiz": 7513,
      "leck": 7514,
      "Ġremdes": 7515,
      "Ġmisso": 7516,
      "khan": 7517,
      "Ġnft": 7518,
      "áº»m": 7519,
      "Ġvinic": 7520,
      "Ġacid": 7521,
      "Ġtencent": 7522,
      "yáº¿t": 7523,
      "Ġblan": 7524,
      "Ġgold": 7525,
      "val": 7526,
      "Ġcáº³ng": 7527,
      "ĠsÃºp": 7528,
      "Ġhau": 7529,
      "Ġhis": 7530,
      "ital": 7531,
      "Ġalaba": 7532,
      "Ġass": 7533,
      "awards": 7534,
      "Ġromelu": 7535,
      "á»£p": 7536,
      "Ġlisa": 7537,
      "Ġkas": 7538,
      "ĠxÃło": 7539,
      "cial": 7540,
      "Ġwhen": 7541,
      "mÆ°Æ¡i": 7542,
      "ĠlÃ©n": 7543,
      "ĠnÃ¡ch": 7544,
      "roud": 7545,
      "ilon": 7546,
      "Ġserbia": 7547,
      "Ġremdesivir": 7548,
      "hÃ¡n": 7549,
      "hiáº¿p": 7550,
      "Ġáº¿": 7551,
      "Ġbail": 7552,
      "idd": 7553,
      "náº¥y": 7554,
      "amil": 7555,
      "its": 7556,
      "cul": 7557,
      "ipe": 7558,
      "acher": 7559,
      "hz": 7560,
      "Ġbook": 7561,
      "Ġpat": 7562,
      "ĠcÃºi": 7563,
      "Ġpleiku": 7564,
      "Ġgas": 7565,
      "Ġdubai": 7566,
      "Ġdepay": 7567,
      "rise": 7568,
      "Ġnetwork": 7569,
      "ngÃ£": 7570,
      "orth": 7571,
      "edad": 7572,
      "Ġvinicius": 7573,
      "ib": 7574,
      "ĠkiÃªu": 7575,
      "Ġanto": 7576,
      "flare": 7577,
      "Ġtá»Ľ": 7578,
      "Ġnáº£n": 7579,
      "Ġleban": 7580,
      "Ġsaigon": 7581,
      "lines": 7582,
      "sáº£o": 7583,
      "zz": 7584,
      "Ġsá»Ŀ": 7585,
      "Ġths": 7586,
      "Ġkhoáº£": 7587,
      "Ġef": 7588,
      "Ġruben": 7589,
      "ete": 7590,
      "Ġtoyo": 7591,
      "Ġalba": 7592,
      "conn": 7593,
      "Ġkie": 7594,
      "ĠngÃł": 7595,
      "ant": 7596,
      "gie": 7597,
      "Ġila": 7598,
      "ilo": 7599,
      "cky": 7600,
      "Ġnaver": 7601,
      "Ġlebanon": 7602,
      "Ġmáº£i": 7603,
      "Ġtroll": 7604,
      "Ġmáº¹o": 7605,
      "Ġphoto": 7606,
      "eng": 7607,
      "ĠÃªn": 7608,
      "Ġraphael": 7609,
      "77": 7610,
      "cÃºc": 7611,
      "Ġtas": 7612,
      "ĠchÃ¢": 7613,
      "Äĳan": 7614,
      "Ġnhá»īnh": 7615,
      "Ġtoan": 7616,
      "tur": 7617,
      "Ġturin": 7618,
      "Ġgiroud": 7619,
      "Ġhenry": 7620,
      "ngáº¯n": 7621,
      "Ġngáº¯t": 7622,
      "ĠdÆ¡i": 7623,
      "Ġcolu": 7624,
      "Ġwo": 7625,
      "Ġ70": 7626,
      "Ġinsulin": 7627,
      "Ġtell": 7628,
      "Ġngáº£": 7629,
      "azz": 7630,
      "peria": 7631,
      "Ġsadio": 7632,
      "Ġvgp": 7633,
      "Ġbá»±c": 7634,
      "luÃ¢n": 7635,
      "azette": 7636,
      "hyt": 7637,
      "Ġtoyota": 7638,
      "Ġlar": 7639,
      "Ġyoo": 7640,
      "Ġdoug": 7641,
      "lazer": 7642,
      "Ġsah": 7643,
      "Ġsociedad": 7644,
      "Ġláº§u": 7645,
      "Ġsaf": 7646,
      "Ġbiontech": 7647,
      "yl": 7648,
      "Ġcháº£": 7649,
      "tham": 7650,
      "iá»ģng": 7651,
      "Ġmanag": 7652,
      "Ġcolumbia": 7653,
      "hanoi": 7654,
      "tion": 7655,
      "ĠkiÃªng": 7656,
      "ĠdiÃª": 7657,
      "Ġviol": 7658,
      "Ġomar": 7659,
      "Ġbob": 7660,
      "Ġpique": 7661,
      "dson": 7662,
      "Ġhouse": 7663,
      "Ġwhit": 7664,
      "Ġbailly": 7665,
      "Ġvá»©t": 7666,
      "Ġlim": 7667,
      "Ġgomez": 7668,
      "yon": 7669,
      "Ġdáº·m": 7670,
      "Ġmarcelo": 7671,
      "Ġspot": 7672,
      "ittle": 7673,
      "girl": 7674,
      "itar": 7675,
      "Ġstars": 7676,
      "Ġká»ģ": 7677,
      "Ġkáº¹p": 7678,
      "Ġherrera": 7679,
      "Ġbáº»": 7680,
      "ĠbÃ£": 7681,
      "emiro": 7682,
      "Ġover": 7683,
      "inks": 7684,
      "Ġsgd": 7685,
      "Ġibrahimovic": 7686,
      "Ġbhyt": 7687,
      "Ġhim": 7688,
      "Ġtá»±u": 7689,
      "Ġsecret": 7690,
      "Ġface": 7691,
      "Ġscan": 7692,
      "Ġá»Ľt": 7693,
      "Ġbá»ĩ": 7694,
      "Ġná»įc": 7695,
      "Ġhill": 7696,
      "Ġge": 7697,
      "Ġevan": 7698,
      "Äĳoáº¡t": 7699,
      "Ġmath": 7700,
      "Ġjoao": 7701,
      "Ġpart": 7702,
      "baldwin": 7703,
      "Ġvr": 7704,
      "Ġquáº§y": 7705,
      "Ġjosh": 7706,
      "Ġnum": 7707,
      "ĠthÃ¬a": 7708,
      "Ġdec": 7709,
      "Ġteen": 7710,
      "thoÃ¡ng": 7711,
      "Ġcasemiro": 7712,
      "gov": 7713,
      "Ġbio": 7714,
      "tráº§m": 7715,
      "ival": 7716,
      "ĠnhuáºŃn": 7717,
      "Ġruá»Ļng": 7718,
      "hÃªnh": 7719,
      "Ġknock": 7720,
      "Ġboldsky": 7721,
      "kiÃªn": 7722,
      "Ġbella": 7723,
      "imi": 7724,
      "raham": 7725,
      "star": 7726,
      "Ġstylist": 7727,
      "Ġmix": 7728,
      "Ġhanoi": 7729,
      "treo": 7730,
      "suit": 7731,
      "nÆ°Æ¡ng": 7732,
      "wis": 7733,
      "nge": 7734,
      "Ġkaz": 7735,
      "ĠtrÃ¡ng": 7736,
      "Ġword": 7737,
      "Ġlazio": 7738,
      "stem": 7739,
      "Ġander": 7740,
      "iza": 7741,
      "ĠÃºp": 7742,
      "ĠÆ°Æ¡m": 7743,
      "ĠlÃ¹m": 7744,
      "ations": 7745,
      "Ġmarco": 7746,
      "gháº¿": 7747,
      "khÃª": 7748,
      "Ġnhá»ĳt": 7749,
      "Ġzen": 7750,
      "bá»īnh": 7751,
      "lay": 7752,
      "Ġsáº£i": 7753,
      "ĠhÃ²": 7754,
      "Ġether": 7755,
      "Ġcheng": 7756,
      "nell": 7757,
      "rent": 7758,
      "Ġbot": 7759,
      "cháº¡p": 7760,
      "Ġjesse": 7761,
      "Ġsumm": 7762,
      "Ġcheck": 7763,
      "Ġnewsflare": 7764,
      "39": 7765,
      "ĠcÃ²": 7766,
      "xuÃ´i": 7767,
      "Ġreport": 7768,
      "Ġhpv": 7769,
      "Ġbreak": 7770,
      "Ġtitan": 7771,
      "nháº£y": 7772,
      "ĠÄĳiá»ģm": 7773,
      "ĠnhÃ´m": 7774,
      "Ġabraham": 7775,
      "Ġvá»ın": 7776,
      "Ġcharles": 7777,
      "vÃ¢y": 7778,
      "sylv": 7779,
      "Äĳáº¯ng": 7780,
      "Ġbis": 7781,
      "emon": 7782,
      "miáº¿ng": 7783,
      "pháº£n": 7784,
      "Ġipo": 7785,
      "ĠmuÃ´n": 7786,
      "Ġbank": 7787,
      "rizio": 7788,
      "Ġdean": 7789,
      "Ġskype": 7790,
      "Äĳá»ĩm": 7791,
      "ĠlÃ¬": 7792,
      "quets": 7793,
      "yeon": 7794,
      "cord": 7795,
      "sc": 7796,
      "Ġpir": 7797,
      "tháº£n": 7798,
      "Ġxperia": 7799,
      "Ġdiva": 7800,
      "vÆ°á»£ng": 7801,
      "xem": 7802,
      "Ġnoo": 7803,
      "Ġfast": 7804,
      "Ġil": 7805,
      "bd": 7806,
      "Ġcardi": 7807,
      "Ġphill": 7808,
      "ĠkhoÃ¡i": 7809,
      "Ġqq": 7810,
      "sapp": 7811,
      "Ġvoan": 7812,
      "itu": 7813,
      "Ġchá»¯ng": 7814,
      "urt": 7815,
      "Ġvinmec": 7816,
      "Ġpulisic": 7817,
      "ĠmÃ©p": 7818,
      "bul": 7819,
      "Ġisco": 7820,
      "Ġsmall": 7821,
      "Ġlacazette": 7822,
      "more": 7823,
      "zym": 7824,
      "Ġbn": 7825,
      "loud": 7826,
      "49": 7827,
      "pi": 7828,
      "qt": 7829,
      "Ġgil": 7830,
      "giÃłu": 7831,
      "ange": 7832,
      "stone": 7833,
      "cept": 7834,
      "Ġptth": 7835,
      "náº¿p": 7836,
      "Ġgel": 7837,
      "Ġchocol": 7838,
      "khuyáº¿t": 7839,
      "endall": 7840,
      "Ġbrooklyn": 7841,
      "ĠtÄĥm": 7842,
      "ĠÄĳÄĥ": 7843,
      "ĠnÆ°Æ¡ng": 7844,
      "ĠxÃ¹m": 7845,
      "Ġwhatsapp": 7846,
      "Ġbá»¡": 7847,
      "Ġkore": 7848,
      "ĠchÃł": 7849,
      "Ġuv": 7850,
      "andra": 7851,
      "endi": 7852,
      "Ġmegan": 7853,
      "ĠÄĳá»Ŀm": 7854,
      "cse": 7855,
      "má»Ļc": 7856,
      "pc": 7857,
      "táº§m": 7858,
      "Ġnháº¥p": 7859,
      "Ġhas": 7860,
      "Ġederson": 7861,
      "af": 7862,
      "phÃ´ng": 7863,
      "Ġsint": 7864,
      "Ġpháº³ng": 7865,
      "led": 7866,
      "ĠxoÃ¡y": 7867,
      "Ġfoxconn": 7868,
      "Ġrudiger": 7869,
      "Ġlogistics": 7870,
      "ĠmÃºi": 7871,
      "Ġnao": 7872,
      "Ġthink": 7873,
      "cháº£i": 7874,
      "Ġxáº¥p": 7875,
      "Ġthá»ĳt": 7876,
      "onso": 7877,
      "Ġnguyen": 7878,
      "daily": 7879,
      "Ġá»ĩnh": 7880,
      "ĠmÆ°á»Ŀng": 7881,
      "ĠmÃ¢m": 7882,
      "Ġsáº£y": 7883,
      "Ġemily": 7884,
      "Ġbusquets": 7885,
      "Ġgener": 7886,
      "Ġnova": 7887,
      "Ġpennsylv": 7888,
      "Ġfam": 7889,
      "Ġfoot": 7890,
      "ishi": 7891,
      "dos": 7892,
      "tuáº§n": 7893,
      "rat": 7894,
      "dule": 7895,
      "uise": 7896,
      "bÃ³p": 7897,
      "hye": 7898,
      "ĠsÃ³i": 7899,
      "Ġhold": 7900,
      "Ġtruiden": 7901,
      "ĠvÃ¡ch": 7902,
      "ĠmÃ¢": 7903,
      "ĠnÆ°Æ¡": 7904,
      "Ġhtc": 7905,
      "Ġgá»ĵng": 7906,
      "Ġdid": 7907,
      "itch": 7908,
      "Ġ2018": 7909,
      "Ġpepe": 7910,
      "27": 7911,
      "bá»įc": 7912,
      "ĠuÃ´ng": 7913,
      "igu": 7914,
      "Ġedge": 7915,
      "Ġpennsylvania": 7916,
      "taro": 7917,
      "ĠgáºŃt": 7918,
      "ĠÄĳoa": 7919,
      "Ġgarcia": 7920,
      "cuá»ĳn": 7921,
      "kÃ´ng": 7922,
      "Ġcáº±m": 7923,
      "Ġcop": 7924,
      "thur": 7925,
      "Ġpvf": 7926,
      "aha": 7927,
      "vietnamnet": 7928,
      "Ġcommun": 7929,
      "luá»µ": 7930,
      "Ġjobs": 7931,
      "Ġstudio": 7932,
      "Ġchocolate": 7933,
      "Ġcg": 7934,
      "ĠÄĳá»ĳm": 7935,
      "Ġváº¯t": 7936,
      "ĠchiÃª": 7937,
      "ĠbÃ©n": 7938,
      "Ġdiogo": 7939,
      "jae": 7940,
      "dáº³ng": 7941,
      "ĠÄĳÃ£i": 7942,
      "Ġmarca": 7943,
      "Ġmarcos": 7944,
      "beth": 7945,
      "Ġcarlos": 7946,
      "Ġnude": 7947,
      "nhÆ¡n": 7948,
      "Ġevery": 7949,
      "xáº¯n": 7950,
      "Ġthere": 7951,
      "Ġháº»m": 7952,
      "Ġgps": 7953,
      "giáº¥u": 7954,
      "itton": 7955,
      "Ġknow": 7956,
      "Ġrobertson": 7957,
      "ĠlÃ¡ng": 7958,
      "Ġpháº«n": 7959,
      "pharm": 7960,
      "ĠmÃ£nh": 7961,
      "Ġpereira": 7962,
      "wr": 7963,
      "Ġ120": 7964,
      "ild": 7965,
      "Ġmodule": 7966,
      "orning": 7967,
      "giÃªng": 7968,
      "hen": 7969,
      "táº¯t": 7970,
      "Ġalz": 7971,
      "Ġchristoph": 7972,
      "Ġroyal": 7973,
      "dor": 7974,
      "post": 7975,
      "ura": 7976,
      "ngá»¡": 7977,
      "rá»Ļ": 7978,
      "zie": 7979,
      "ĠlÆ°Æ¡": 7980,
      "ĠrÆ°á»Ľc": 7981,
      "Ġcad": 7982,
      "Ġiq": 7983,
      "Ġemil": 7984,
      "Ġadr": 7985,
      "yi": 7986,
      "Ġcin": 7987,
      "Ġgio": 7988,
      "Ġmiami": 7989,
      "Ġairlines": 7990,
      "ĠhÃ³": 7991,
      "ÄĳÃ¨n": 7992,
      "Ġná»ģ": 7993,
      "Ġitu": 7994,
      "cop": 7995,
      "ĠgiÃ²": 7996,
      "Ġsub": 7997,
      "Ġantoine": 7998,
      "cÃ¡p": 7999,
      "lÃ£o": 8000,
      "mÃłng": 8001,
      "Ġráº¡ch": 8002,
      "Ġphotos": 8003,
      "Ġá»ĥ": 8004,
      "quÃ¡": 8005,
      "Ġleg": 8006,
      "ĠtÆ°ng": 8007,
      "som": 8008,
      "Ġbrown": 8009,
      "Ġawards": 8010,
      "lÃ¢n": 8011,
      "ting": 8012,
      "ias": 8013,
      "Ġlautaro": 8014,
      "Ġcollagen": 8015,
      "Ġtrend": 8016,
      "Ġhad": 8017,
      "Ġtak": 8018,
      "Ġboe": 8019,
      "Ġtweet": 8020,
      "Ġentertainment": 8021,
      "aff": 8022,
      "Ġside": 8023,
      "Ġqueens": 8024,
      "Ġfrancisco": 8025,
      "ping": 8026,
      "nháº¹": 8027,
      "log": 8028,
      "Ġcrop": 8029,
      "Ġnumber": 8030,
      "88": 8031,
      "cáº¥n": 8032,
      "mÃŃ": 8033,
      "Ġschm": 8034,
      "narum": 8035,
      "pat": 8036,
      "ĠchÃ³i": 8037,
      "nhá»Ļn": 8038,
      "ĠlÃ¹n": 8039,
      "Ġxay": 8040,
      "idol": 8041,
      "Ġmach": 8042,
      "Ġqueen": 8043,
      "46": 8044,
      "tag": 8045,
      "ĠÆ°á»Ľp": 8046,
      "Ġcit": 8047,
      "gáº¡o": 8048,
      "Ġce": 8049,
      "ĠÄĳai": 8050,
      "Ġlay": 8051,
      "esco": 8052,
      "eter": 8053,
      "Ġ29": 8054,
      "nect": 8055,
      "Ġdonnarum": 8056,
      "Ġnm": 8057,
      "eton": 8058,
      "Ġec": 8059,
      "Ġvari": 8060,
      "Ġnanogen": 8061,
      "ussia": 8062,
      "bá»ģn": 8063,
      "Ġsund": 8064,
      "Ġbrom": 8065,
      "Ġdance": 8066,
      "Ġmahrez": 8067,
      "ologi": 8068,
      "Ġorigin": 8069,
      "nhÃ³m": 8070,
      "ĠlÆ°á»¡ng": 8071,
      "Ġmdis": 8072,
      "gaard": 8073,
      "Ġvariety": 8074,
      "oid": 8075,
      "rÃ¡c": 8076,
      "Ġclass": 8077,
      "pil": 8078,
      "Ġsino": 8079,
      "ĠnhÄ©": 8080,
      "Ġabout": 8081,
      "Ġsteven": 8082,
      "Ġtá»ĩp": 8083,
      "lá»Ĺ": 8084,
      "rá»ĳt": 8085,
      "oÃłng": 8086,
      "Ġtiáº¿u": 8087,
      "Ġkaplan": 8088,
      "lÆ°á»Ľt": 8089,
      "ved": 8090,
      "wc": 8091,
      "xx": 8092,
      "ĠbÆ°á»Ľm": 8093,
      "tec": 8094,
      "point": 8095,
      "Ġashley": 8096,
      "táºŃn": 8097,
      "Ġces": 8098,
      "ĠhÃ¡ng": 8099,
      "Ġport": 8100,
      "ĠsuÃ´ng": 8101,
      "Ġguitar": 8102,
      "Ġcmcn": 8103,
      "Ġmedic": 8104,
      "há»įng": 8105,
      "Ġraiola": 8106,
      "Ġunder": 8107,
      "fs": 8108,
      "vÃµ": 8109,
      "Ġmov": 8110,
      "Ġozil": 8111,
      "Ġtake": 8112,
      "wh": 8113,
      "wick": 8114,
      "Ġbá»¥c": 8115,
      "Ġsap": 8116,
      "ĠrÃ¢u": 8117,
      "ĠkhoÃ©t": 8118,
      "Ġfind": 8119,
      "Ġbuff": 8120,
      "Ġfoden": 8121,
      "Ġ04": 8122,
      "02": 8123,
      "bÃ¡t": 8124,
      "tic": 8125,
      "ÄĳáºŃp": 8126,
      "Ġsáº¥y": 8127,
      "Ġgate": 8128,
      "lib": 8129,
      "Ġallian": 8130,
      "Ġlloris": 8131,
      "Ġkhá»©u": 8132,
      "Äĳiá»ģn": 8133,
      "Ġker": 8134,
      "Ġmou": 8135,
      "ĠquÃ¡t": 8136,
      "Ġfashion": 8137,
      "john": 8138,
      "ugh": 8139,
      "Ġblv": 8140,
      "Ġrose": 8141,
      "Ġzi": 8142,
      "Ġengine": 8143,
      "Ġfriend": 8144,
      "Ġtruidense": 8145,
      "Ġdonnarumma": 8146,
      "kei": 8147,
      "var": 8148,
      "Ġmers": 8149,
      "ĠgiÃ£": 8150,
      "Ġshort": 8151,
      "Ġmeg": 8152,
      "Ġmaster": 8153,
      "Ġattt": 8154,
      "Ġjessica": 8155,
      "vÃłn": 8156,
      "Ġlis": 8157,
      "Ġalleg": 8158,
      "Ġolivia": 8159,
      "cent": 8160,
      "ngÆ°á»¡ng": 8161,
      "Ġpak": 8162,
      "chinh": 8163,
      "Ġath": 8164,
      "Ġfat": 8165,
      "Ġiso": 8166,
      "ough": 8167,
      "Ġjota": 8168,
      "Ġbernardo": 8169,
      "sch": 8170,
      "ĠmÃ²n": 8171,
      "Ġmtv": 8172,
      "Ġnatri": 8173,
      "heimer": 8174,
      "Ġfederer": 8175,
      "Ġcasting": 8176,
      "Ġvun": 8177,
      "Ġkiáº¿p": 8178,
      "Ġmore": 8179,
      "Ġwestern": 8180,
      "Ġjay": 8181,
      "ĠÄĳá»ĭch": 8182,
      "Ġkoulib": 8183,
      "Ġkoulibaly": 8184,
      "bn": 8185,
      "via": 8186,
      "Ġhá»ĳc": 8187,
      "Ġhao": 8188,
      "phy": 8189,
      "Ġboy": 8190,
      "Ġibt": 8191,
      "Ġallegri": 8192,
      "ste": 8193,
      "ĠdÃª": 8194,
      "Ġinc": 8195,
      "vey": 8196,
      "ĠbÃºn": 8197,
      "allenge": 8198,
      "Ġalzheimer": 8199,
      "wei": 8200,
      "Ġmt": 8201,
      "Ġsta": 8202,
      "Ġspo": 8203,
      "Ġod": 8204,
      "Ġhudson": 8205,
      "ensio": 8206,
      "Ġsarah": 8207,
      "bá»«ng": 8208,
      "káº¡n": 8209,
      "ruá»ĵi": 8210,
      "sá»¥p": 8211,
      "Ġmeta": 8212,
      "Ġgáº¯t": 8213,
      "Ãºm": 8214,
      "ely": 8215,
      "Ġharper": 8216,
      "ĠvÃ´i": 8217,
      "ĠghÃª": 8218,
      "ĠbÃªnh": 8219,
      "Ġstream": 8220,
      "Ġnhiá»ħu": 8221,
      "ĠnÃ©": 8222,
      "tháº£": 8223,
      "ĠgiÃłn": 8224,
      "Ġnghiá»ģn": 8225,
      "Ġaag": 8226,
      "Ġfit": 8227,
      "Ġcaffe": 8228,
      "Ġeat": 8229,
      "gá»£i": 8230,
      "náº¿u": 8231,
      "Ġcháº¯p": 8232,
      "quez": 8233,
      "chá»©a": 8234,
      "Ġduá»Ĺi": 8235,
      "ĠkÃ©n": 8236,
      "Ġsystem": 8237,
      "tá»ķng": 8238,
      "Ġpierre": 8239,
      "ráº¯n": 8240,
      "Ġhand": 8241,
      "ĠdÃ¬u": 8242,
      "Ġphys": 8243,
      "Ġlui": 8244,
      "Ġramsey": 8245,
      "ËĲ": 8246,
      "Ġkendall": 8247,
      "Ġnight": 8248,
      "Ġemery": 8249,
      "nel": 8250,
      "ngÃ¹i": 8251,
      "ĠdÃ¬": 8252,
      "emb": 8253,
      "ject": 8254,
      "Ġlip": 8255,
      "Ġnhá»ī": 8256,
      "aig": 8257,
      "ĠnÃ³n": 8258,
      "wski": 8259,
      "Ġstand": 8260,
      "Ġperse": 8261,
      "Ġrodrigo": 8262,
      "hung": 8263,
      "xÃ¬": 8264,
      "Äĳá»īnh": 8265,
      "Ġlever": 8266,
      "Ġibm": 8267,
      "ien": 8268,
      "ĠÄĳÆ¡": 8269,
      "Ġsaul": 8270,
      "Ġweek": 8271,
      "Ġviscohanoi": 8272,
      "gaga": 8273,
      "Äĳáº¡m": 8274,
      "Ġuber": 8275,
      "df": 8276,
      "Ġá»ģ": 8277,
      "Ġmand": 8278,
      "Ġdiá»ģu": 8279,
      "Ġmarvel": 8280,
      "Ġsalad": 8281,
      "Ġleno": 8282,
      "Ġmate": 8283,
      "Ġxs": 8284,
      "apan": 8285,
      "Ġasensio": 8286,
      "ĠsÆ°á»Ľng": 8287,
      "ĠtuyÃª": 8288,
      "Ġgreat": 8289,
      "Ġberlin": 8290,
      "bros": 8291,
      "care": 8292,
      "ĠthÆ°Æ¡": 8293,
      "Ġcons": 8294,
      "Ġunai": 8295,
      "vuitton": 8296,
      "Ġvolley": 8297,
      "Ġfelix": 8298,
      "47": 8299,
      "Ġcpu": 8300,
      "ĠmÃ¡c": 8301,
      "Ġming": 8302,
      "Ġsáº·c": 8303,
      "Ġfabinho": 8304,
      "Ġborussia": 8305,
      "33": 8306,
      "eun": 8307,
      "vÃ¡n": 8308,
      "Ġgpu": 8309,
      "Ġradar": 8310,
      "omen": 8311,
      "Ġmedical": 8312,
      "Ġrafael": 8313,
      "Ġsinopharm": 8314,
      "Ġtony": 8315,
      "Ġdá»¥": 8316,
      "ĠrÃłng": 8317,
      "á»ģnh": 8318,
      "phiÃªn": 8319,
      "Ġradio": 8320,
      "ĠhÃ£m": 8321,
      "xá»īu": 8322,
      "Ġbilbao": 8323,
      "ĠbÄĳ": 8324,
      "ons": 8325,
      "Ġcuba": 8326,
      "Ġ31": 8327,
      "ĠtmÄĳt": 8328,
      "akh": 8329,
      "tÃ¬m": 8330,
      "Ġland": 8331,
      "ĠhÃ²ng": 8332,
      "Ġhub": 8333,
      "Ġpres": 8334,
      "ship": 8335,
      "Ġspeak": 8336,
      "bor": 8337,
      "late": 8338,
      "Äĳau": 8339,
      "Ġbá»įt": 8340,
      "Ġttg": 8341,
      "Ġbeckham": 8342,
      "zyme": 8343,
      "ĠÄĥng": 8344,
      "ÄĳÃ¢u": 8345,
      "ĠxÆ°á»Ľng": 8346,
      "Ġkam": 8347,
      "há»ĩt": 8348,
      "Ġloay": 8349,
      "cin": 8350,
      "cas": 8351,
      "diá»ĩc": 8352,
      "shay": 8353,
      "vá»ĳn": 8354,
      "trá»ĩ": 8355,
      "chuyÃªn": 8356,
      "amilk": 8357,
      "Ġâ": 8358,
      "ĠÃ´i": 8359,
      "ĠÃ³c": 8360,
      "ĠbÃ¨": 8361,
      "Ġnáº¿m": 8362,
      "Ġdeb": 8363,
      "Ġlyn": 8364,
      "Ġnicolas": 8365,
      "bÆ¡i": 8366,
      "night": 8367,
      "Ġtg": 8368,
      "Ġtrá»ķ": 8369,
      "Ġht": 8370,
      "Ġron": 8371,
      "ĠrÃ©t": 8372,
      "Ġlot": 8373,
      "Ġvá»¥n": 8374,
      "video": 8375,
      "Ġsurface": 8376,
      "Ġchilwell": 8377,
      "Ġmri": 8378,
      "thÃ¡m": 8379,
      "hoay": 8380,
      "Ġbright": 8381,
      "omo": 8382,
      "Ġrang": 8383,
      "ĠchuyÃª": 8384,
      "cp": 8385,
      "lÃ¡ch": 8386,
      "lat": 8387,
      "Ġur": 8388,
      "Ġunesco": 8389,
      "Ġsane": 8390,
      "Ġvinamilk": 8391,
      "Ġresort": 8392,
      "Ġabdul": 8393,
      "lÄĳ": 8394,
      "mouth": 8395,
      "Ġtháº¯m": 8396,
      "Ġqui": 8397,
      "inity": 8398,
      "Ġyale": 8399,
      "Ġeast": 8400,
      "Ġoffice": 8401,
      "pink": 8402,
      "wart": 8403,
      "ĠlÃ¡ch": 8404,
      "Ġbeyon": 8405,
      "vÄ©": 8406,
      "ĠvÄĥng": 8407,
      "quáº¿": 8408,
      "Ġrá»ĳt": 8409,
      "Ġansu": 8410,
      "dogan": 8411,
      "ernandez": 8412,
      "guson": 8413,
      "hang": 8414,
      "tÃ¹": 8415,
      "nguy": 8416,
      "Ġtáº£ng": 8417,
      "Ġrá»ĥ": 8418,
      "tháº¥p": 8419,
      "Ġtá»¥i": 8420,
      "há»įp": 8421,
      "Ġpirlo": 8422,
      "ben": 8423,
      "chá»įc": 8424,
      "Ġlittle": 8425,
      "ĠtrÆ°": 8426,
      "Ġhoe": 8427,
      "icu": 8428,
      "ify": 8429,
      "hanna": 8430,
      "Ġkiatisak": 8431,
      "mong": 8432,
      "ĠcÃły": 8433,
      "áº«ng": 8434,
      "Ġyan": 8435,
      "home": 8436,
      "Ġvinsmart": 8437,
      "nos": 8438,
      "ngÃł": 8439,
      "ngÃ¹ng": 8440,
      "Ġpick": 8441,
      "Ġnguá»Ļi": 8442,
      "Ġatm": 8443,
      "Ġ800": 8444,
      "nhoÃ¡ng": 8445,
      "cÃ³c": 8446,
      "háº¡ch": 8447,
      "md": 8448,
      "viÃªm": 8449,
      "Ġcell": 8450,
      "Ġsandal": 8451,
      "als": 8452,
      "undai": 8453,
      "Ġfloren": 8454,
      "Ġcentral": 8455,
      "kusen": 8456,
      "háº³n": 8457,
      "nhá»įn": 8458,
      "Ġbung": 8459,
      "Ġkir": 8460,
      "etam": 8461,
      "main": 8462,
      "Ġsporting": 8463,
      "tÃŃm": 8464,
      "tuyá»ģn": 8465,
      "Ġcv": 8466,
      "ĠmÄĥng": 8467,
      "Ġgá»ĳm": 8468,
      "chÆ°ng": 8469,
      "Ġancel": 8470,
      "illa": 8471,
      "Ġhae": 8472,
      "Ġmonaco": 8473,
      "Ġirina": 8474,
      "Ġleverkusen": 8475,
      "tp": 8476,
      "Ġsá»įc": 8477,
      "quÃ¡i": 8478,
      "phis": 8479,
      "Ġphilippe": 8480,
      "Ġcá»«u": 8481,
      "náº¡p": 8482,
      "Ġá»ĭ": 8483,
      "Ġell": 8484,
      "Ġniger": 8485,
      "Ġhz": 8486,
      "Ġenzyme": 8487,
      "Ġyoon": 8488,
      "Ġná»į": 8489,
      "tures": 8490,
      "Ġqueensland": 8491,
      "cáº©u": 8492,
      "dÆ°ng": 8493,
      "Ġthiá»ĩp": 8494,
      "trÃłn": 8495,
      "Ġmuá»Ĺng": 8496,
      "Ġariz": 8497,
      "ympic": 8498,
      "Ġchampionship": 8499,
      "liu": 8500,
      "izabeth": 8501,
      "fone": 8502,
      "chiÃªu": 8503,
      "Ġrabiot": 8504,
      "Ġjason": 8505,
      "Ġdae": 8506,
      "Ġstarlink": 8507,
      "Ġmichigan": 8508,
      "shayk": 8509,
      "lon": 8510,
      "xÆ°ng": 8511,
      "Ġsor": 8512,
      "Ġhyundai": 8513,
      "Ġlight": 8514,
      "Ġsig": 8515,
      "Ġdam": 8516,
      "67": 8517,
      "bÆ°á»Ľc": 8518,
      "mg": 8519,
      "vÃ¡ng": 8520,
      "Ġvers": 8521,
      "Ġhun": 8522,
      "minzy": 8523,
      "Ġsouthgate": 8524,
      "fox": 8525,
      "Ġwoods": 8526,
      "Ġboeing": 8527,
      "Ġbmi": 8528,
      "Ġkovac": 8529,
      "Ġhernandez": 8530,
      "Ġmoon": 8531,
      "Ġancelotti": 8532,
      "cle": 8533,
      "ĠnÃª": 8534,
      "Ġpac": 8535,
      "Ġdomin": 8536,
      "ĠxoÄĥn": 8537,
      "Ġebola": 8538,
      "ÄĳÆ°á»£c": 8539,
      "ĠphÃ´ng": 8540,
      "Ġkhiá»ĥn": 8541,
      "choÃłng": 8542,
      "Ġeur": 8543,
      "Ġfoundation": 8544,
      "bac": 8545,
      "cau": 8546,
      "city": 8547,
      "nm": 8548,
      "rá»ĥ": 8549,
      "xáº¥u": 8550,
      "ĠthiÃªng": 8551,
      "quÃª": 8552,
      "Ġaus": 8553,
      "verance": 8554,
      "2020": 8555,
      "Ġnavas": 8556,
      "Ġarizona": 8557,
      "85": 8558,
      "uÃ½": 8559,
      "ĠÄĳÅ©a": 8560,
      "ĠbÃ¬": 8561,
      "ĠcÃ¹": 8562,
      "Ġchiesa": 8563,
      "Ġtá»§i": 8564,
      "attle": 8565,
      "Ġposter": 8566,
      "Ġdrama": 8567,
      "Ġtuyá»ģn": 8568,
      "Äĳáº¿": 8569,
      "ĠbÃ¡u": 8570,
      "Ġrim": 8571,
      "gil": 8572,
      "Ġmá»į": 8573,
      "Ġodo": 8574,
      "ĠcÃ¡u": 8575,
      "Ġpatrick": 8576,
      "miÃªn": 8577,
      "Ġlá»ĳp": 8578,
      "ĠdÃ¨": 8579,
      "eri": 8580,
      "Ġsime": 8581,
      "dá»ĭu": 8582,
      "Ġdias": 8583,
      "sel": 8584,
      "ĠrÆ¡m": 8585,
      "Ġquo": 8586,
      "emo": 8587,
      "Ġseung": 8588,
      "Ġ600": 8589,
      "má»Ŀ": 8590,
      "Ġcáº¡o": 8591,
      "Ġcall": 8592,
      "Ġxy": 8593,
      "ĠgÃ¬n": 8594,
      "Ġalph": 8595,
      "Ġcarbo": 8596,
      "Ġmino": 8597,
      "Ġbifido": 8598,
      "bÃ¹": 8599,
      "gal": 8600,
      "ray": 8601,
      "ĠchÃ©p": 8602,
      "Ġkenn": 8603,
      "Ġcuá»ĳng": 8604,
      "house": 8605,
      "Ġvivo": 8606,
      "Ġalpha": 8607,
      "Ġnathan": 8608,
      "thew": 8609,
      "cÆ°á»Ľc": 8610,
      "Ġfly": 8611,
      "Ġwemb": 8612,
      "Ġjapan": 8613,
      "Ġei": 8614,
      "Ġous": 8615,
      "ezo": 8616,
      "fac": 8617,
      "vÃłnh": 8618,
      "nhÃ¡t": 8619,
      "ilton": 8620,
      "Ġwembley": 8621,
      "len": 8622,
      "mb": 8623,
      "ĠbÃ¢": 8624,
      "trogen": 8625,
      "Ġrio": 8626,
      "phÃłm": 8627,
      "aton": 8628,
      "Ġoan": 8629,
      "Ġbeauty": 8630,
      "Ġkazakh": 8631,
      "Ġodoi": 8632,
      "Ġvá»ī": 8633,
      "Ġlil": 8634,
      "Ġmáº¥u": 8635,
      "ĠdÃ¢m": 8636,
      "esel": 8637,
      "Ġdavi": 8638,
      "ome": 8639,
      "Ġwechat": 8640,
      "dÄ©nh": 8641,
      "gun": 8642,
      "mÃły": 8643,
      "ĠdÃ¢": 8644,
      "Ġbá»ĭt": 8645,
      "Ġsupa": 8646,
      "Ġmade": 8647,
      "queen": 8648,
      "Ġhdbank": 8649,
      "Ġnigeria": 8650,
      "cz": 8651,
      "gers": 8652,
      "mich": 8653,
      "ĠnháºŃm": 8654,
      "Ġcháº§n": 8655,
      "ĠrÃ¡n": 8656,
      "verse": 8657,
      "ĠÄĳÃ´la": 8658,
      "dÅ©": 8659,
      "ĠquyÃª": 8660,
      "wen": 8661,
      "nháº¹n": 8662,
      "Ġtráº§y": 8663,
      "Ġsoo": 8664,
      "gic": 8665,
      "Ġfort": 8666,
      "load": 8667,
      "ould": 8668,
      "Ġgeorgia": 8669,
      "nov": 8670,
      "Ġpic": 8671,
      "Ġsohu": 8672,
      "Ġtechfest": 8673,
      "Ġromero": 8674,
      "Ġkazakhstan": 8675,
      "Ġdace": 8676,
      "isso": 8677,
      "Ġusa": 8678,
      "Ġcá»¥t": 8679,
      "háº§m": 8680,
      "vá»¯a": 8681,
      "Ġpy": 8682,
      "ĠrÆ°á»£t": 8683,
      "Ġchá»ĳn": 8684,
      "oshi": 8685,
      "Ġjoan": 8686,
      "Ġvinfast": 8687,
      "Ġmiley": 8688,
      "Ġcharlie": 8689,
      "Ġobama": 8690,
      "ced": 8691,
      "cio": 8692,
      "jun": 8693,
      "ĠÄĳáº¯m": 8694,
      "Ġsaka": 8695,
      "Ġhn": 8696,
      "Ġfree": 8697,
      "Ġstephen": 8698,
      "Ġorgan": 8699,
      "Ġgundogan": 8700,
      "Ġicardi": 8701,
      "Ġsoftware": 8702,
      "Ġsz": 8703,
      "Ġnáº¿n": 8704,
      "Ġháº¯n": 8705,
      "Ġmasters": 8706,
      "Ġlangu": 8707,
      "Ġnikkei": 8708,
      "Ġdream": 8709,
      "43": 8710,
      "lá»Ł": 8711,
      "sology": 8712,
      "Ġnig": 8713,
      "ivac": 8714,
      "Ġedward": 8715,
      "athip": 8716,
      "Ġmrna": 8717,
      "Ġhopkins": 8718,
      "eum": 8719,
      "Ġcore": 8720,
      "nhÃµm": 8721,
      "Ġsáº§u": 8722,
      "trÃłm": 8723,
      "ente": 8724,
      "Ġsecur": 8725,
      "Ġmorgan": 8726,
      "Ġchristopher": 8727,
      "icueta": 8728,
      "yun": 8729,
      "Ġmorning": 8730,
      "tric": 8731,
      "Ġanaly": 8732,
      "Ġ250": 8733,
      "Ġhawai": 8734,
      "Ġimp": 8735,
      "Ġgonz": 8736,
      "42": 8737,
      "dison": 8738,
      "Ġsas": 8739,
      "Ġsbd": 8740,
      "ĠchÆ°á»Ŀm": 8741,
      "Ġdna": 8742,
      "Ġkhay": 8743,
      "ardy": 8744,
      "Ġbrian": 8745,
      "Ġreports": 8746,
      "Ġperseverance": 8747,
      "vÃł": 8748,
      "vÃ³c": 8749,
      "vÃ£n": 8750,
      "Ġtal": 8751,
      "Ġgiáº¿ng": 8752,
      "ĠdÃµi": 8753,
      "ĠkhiÃª": 8754,
      "Ġtown": 8755,
      "edonia": 8756,
      "Ġcornell": 8757,
      "dáº·n": 8758,
      "Ġami": 8759,
      "Ġhonor": 8760,
      "Ġsimeone": 8761,
      "hun": 8762,
      "ĠmÃło": 8763,
      "ĠsÃ²": 8764,
      "Ġpass": 8765,
      "Ġryan": 8766,
      "Ġbad": 8767,
      "Ġrome": 8768,
      "Ġvery": 8769,
      "dao": 8770,
      "suyá»ħn": 8771,
      "ub": 8772,
      "yes": 8773,
      "Ġlte": 8774,
      "á»£m": 8775,
      "Ġgdp": 8776,
      "Ġafghan": 8777,
      "ná»£": 8778,
      "táº¥c": 8779,
      "Ġjona": 8780,
      "Ġroger": 8781,
      "Ġstor": 8782,
      "Ġttx": 8783,
      "Ġspa": 8784,
      "Ġkasper": 8785,
      "nhá»įc": 8786,
      "trÄĥm": 8787,
      "Ġigh": 8788,
      "Ġinec": 8789,
      "Ġarthur": 8790,
      "Ġadvan": 8791,
      "ller": 8792,
      "icsson": 8793,
      "instein": 8794,
      "Ġxhaka": 8795,
      "pilicueta": 8796,
      "ĠdÃŃ": 8797,
      "aid": 8798,
      "Ġicel": 8799,
      "Ġvidal": 8800,
      "Ġruá»ĵi": 8801,
      "able": 8802,
      "allad": 8803,
      "hydr": 8804,
      "Ġazpilicueta": 8805,
      "Ġbetis": 8806,
      "affleck": 8807,
      "Ġiceland": 8808,
      "dl": 8809,
      "mÆ°a": 8810,
      "ĠbÃ¨o": 8811,
      "ĠxÆ°ng": 8812,
      "Ġsunrise": 8813,
      "Ġafghanistan": 8814,
      "vÃ²ng": 8815,
      "vÆ°á»Ŀn": 8816,
      "Ġsne": 8817,
      "ericsson": 8818,
      "ĠxuÃ¢": 8819,
      "Ġcancelo": 8820,
      "khá»§ng": 8821,
      "Ġchanathip": 8822,
      "Ġkuo": 8823,
      "Ġferguson": 8824,
      "Ġballad": 8825,
      "Ġighalo": 8826,
      "bat": 8827,
      "Ġbeller": 8828,
      "Ġsáº£ng": 8829,
      "á»ım": 8830,
      "Ġjolie": 8831,
      "Ġclau": 8832,
      "Ġsequin": 8833,
      "Ġmaps": 8834,
      "bÃ¹i": 8835,
      "hon": 8836,
      "ĠbÃºi": 8837,
      "Ġblazer": 8838,
      "ĠsÃ²ng": 8839,
      "ĠhiÃªn": 8840,
      "ĠháºŃn": 8841,
      "thá»ĭt": 8842,
      "mane": 8843,
      "Ġicloud": 8844,
      "Ġlaporte": 8845,
      "Ġfootball": 8846,
      "hinh": 8847,
      "Ġnhá»ĭ": 8848,
      "uno": 8849,
      "lá»«a": 8850,
      "ĠblÄĳ": 8851,
      "Ġhawaii": 8852,
      "lÃ¡i": 8853,
      "nic": 8854,
      "ĠgÃ¡y": 8855,
      "Ġford": 8856,
      "Ġ90": 8857,
      "hÃ©n": 8858,
      "astic": 8859,
      "Ġsiri": 8860,
      "Ġhappy": 8861,
      "cell": 8862,
      "met": 8863,
      "Ġlá»Ł": 8864,
      "Ġlille": 8865,
      "Ġfood": 8866,
      "Ġbaby": 8867,
      "Ġmario": 8868,
      "cruise": 8869,
      "uz": 8870,
      "Ġcis": 8871,
      "Äĳá»ĳ": 8872,
      "Ġsbs": 8873,
      "Ġgig": 8874,
      "Ġjae": 8875,
      "Ġlow": 8876,
      "Ġnguá»µ": 8877,
      "Ġberg": 8878,
      "mÃ³ng": 8879,
      "Ġpur": 8880,
      "ĠxÃ´i": 8881,
      "Ġlewis": 8882,
      "Ġlithi": 8883,
      "Ġkarim": 8884,
      "Ġdavies": 8885,
      "cÃºng": 8886,
      "vÃ¹ng": 8887,
      "Ġcham": 8888,
      "inst": 8889,
      "Ġbul": 8890,
      "Ġkhuáº¥y": 8891,
      "edy": 8892,
      "Ġsamuel": 8893,
      "Ġmissosology": 8894,
      "Ġlithium": 8895,
      "66": 8896,
      "mor": 8897,
      "Ġdus": 8898,
      "Ġjor": 8899,
      "Ġ45": 8900,
      "Ġwarner": 8901,
      "dá»ĳc": 8902,
      "kÃŃ": 8903,
      "Ġbamb": 8904,
      "ĠnhÃºt": 8905,
      "ross": 8906,
      "Ġlopez": 8907,
      "Ġlanguage": 8908,
      "od": 8909,
      "off": 8910,
      "Ġchallenge": 8911,
      "Ġangela": 8912,
      "Ġvhtt": 8913,
      "Ġttxvn": 8914,
      "cÃ¢n": 8915,
      "Ġore": 8916,
      "Ġbá»«a": 8917,
      "ĠnÃ²ng": 8918,
      "online": 8919,
      "Ġfau": 8920,
      "une": 8921,
      "Ġseong": 8922,
      "Ġstat": 8923,
      "Ġmaurizio": 8924,
      "Ġtoni": 8925,
      "ful": 8926,
      "nas": 8927,
      "eron": 8928,
      "Ġjaco": 8929,
      "hill": 8930,
      "97": 8931,
      "kt": 8932,
      "nia": 8933,
      "ucci": 8934,
      "Ġbm": 8935,
      "ĠrÃ´": 8936,
      "onto": 8937,
      "hou": 8938,
      "Ġká»ī": 8939,
      "kool": 8940,
      "earth": 8941,
      "Ġcolorado": 8942,
      "ges": 8943,
      "ĠtÃ£": 8944,
      "Ġvung": 8945,
      "Ġlá»ĵi": 8946,
      "cháº¥m": 8947,
      "Ġkhuá»·": 8948,
      "Ġstones": 8949,
      "Ġsandro": 8950,
      "ml": 8951,
      "xuá»ĳng": 8952,
      "Ġdra": 8953,
      "arch": 8954,
      "Ġrealme": 8955,
      "Ġschol": 8956,
      "Ġbernard": 8957,
      "Ġepic": 8958,
      "app": 8959,
      "Ġlook": 8960,
      "Ġná»©c": 8961,
      "Ġhash": 8962,
      "Ġdáº¥n": 8963,
      "ensen": 8964,
      "Ġanti": 8965,
      "dou": 8966,
      "Ġleng": 8967,
      "Ġcarbohydr": 8968,
      "Ġreb": 8969,
      "oled": 8970,
      "ivo": 8971,
      "Ġclin": 8972,
      "Ġplas": 8973,
      "iravir": 8974,
      "Ġgateway": 8975,
      "fia": 8976,
      "plo": 8977,
      "Ġá»Ļt": 8978,
      "ĠlÆ°á»£c": 8979,
      "Ġhuyá»ĩt": 8980,
      "Ġconnect": 8981,
      "Ġdoping": 8982,
      "Ġuk": 8983,
      "Ġandy": 8984,
      "Ġmichelle": 8985,
      "holmes": 8986,
      "Ġdouglas": 8987,
      "lÅ©": 8988,
      "vÃº": 8989,
      "Äĳáº½": 8990,
      "Ġbá»īnh": 8991,
      "Ġcháº£i": 8992,
      "char": 8993,
      "Ġxavi": 8994,
      "Ġelizabeth": 8995,
      "Ġcrew": 8996,
      "Ġousmane": 8997,
      "gor": 8998,
      "lá»Ńng": 8999,
      "Ġáº¿n": 9000,
      "ngÆ°": 9001,
      "Ġváº§n": 9002,
      "Ġlanh": 9003,
      "Ġnhá»ķ": 9004,
      "Ġrick": 9005,
      "Ġcont": 9006,
      "Ġreview": 9007,
      "xynos": 9008,
      "Ġcatal": 9009,
      "váº§n": 9010,
      "vac": 9011,
      "Ġceb": 9012,
      "Äĳh": 9013,
      "Ġsto": 9014,
      "ĠgiÃ²n": 9015,
      "Ġsull": 9016,
      "nghá»ĭch": 9017,
      "Ġlá»ģu": 9018,
      "Ġslov": 9019,
      "Ġsandals": 9020,
      "nc": 9021,
      "mani": 9022,
      "ring": 9023,
      "vice": 9024,
      "xá»Ļn": 9025,
      "ĠthuÃ¢": 9026,
      "Ġicm": 9027,
      "giá»¥c": 9028,
      "otter": 9029,
      "Ġross": 9030,
      "Ġpok": 9031,
      "ım": 9032,
      "Ġvfc": 9033,
      "Ġxr": 9034,
      "Ġexynos": 9035,
      "Ġ75": 9036,
      "Ġmacedonia": 9037,
      "Ġdynam": 9038,
      "cra": 9039,
      "Ġlist": 9040,
      "Ġkrist": 9041,
      "akia": 9042,
      "Ġairways": 9043,
      "Ġreading": 9044,
      "sÃ©t": 9045,
      "Ġtáº¥y": 9046,
      "Ġphao": 9047,
      "tháº©m": 9048,
      "Ġalonso": 9049,
      "Ġshang": 9050,
      "Ġamber": 9051,
      "Ġadrian": 9052,
      "thÃŃnh": 9053,
      "Ġdanny": 9054,
      "Ġbenf": 9055,
      "yeong": 9056,
      "Ġdalot": 9057,
      "kÃ¨o": 9058,
      "lton": 9059,
      "rá»±c": 9060,
      "ngá»§i": 9061,
      "Ġparagu": 9062,
      "yech": 9063,
      "Ġflag": 9064,
      "ĠhÄĳnd": 9065,
      "cáº©n": 9066,
      "ná»©t": 9067,
      "nom": 9068,
      "Ġhigu": 9069,
      "Ġcelta": 9070,
      "Ġcarolina": 9071,
      "Ġparaguay": 9072,
      "rin": 9073,
      "Ġcáº·n": 9074,
      "ĠcháºŃp": 9075,
      "Ġtuá»ĵng": 9076,
      "Ġequ": 9077,
      "Ġalf": 9078,
      "andre": 9079,
      "Ġziyech": 9080,
      "gt": 9081,
      "jal": 9082,
      "ĠthÃ¢u": 9083,
      "Ġphá»Ł": 9084,
      "ities": 9085,
      "Ġmethanol": 9086,
      "Ġyear": 9087,
      "Ġethereum": 9088,
      "Ġbamboo": 9089,
      "Ġkhuá»·u": 9090,
      "cat": 9091,
      "Ġtar": 9092,
      "ĠkhÃ¢m": 9093,
      "Ġkids": 9094,
      "ĠnhÃºng": 9095,
      "Ġchiá»ĥu": 9096,
      "Ġngáº¡t": 9097,
      "Ġrui": 9098,
      "phÃło": 9099,
      "khoÃ¡t": 9100,
      "Ġdiana": 9101,
      "Ġpressing": 9102,
      "Ġtennis": 9103,
      "Ġjonathan": 9104,
      "Ġbenfica": 9105,
      "Ã¼": 9106,
      "ngay": 9107,
      "ĠdiÃªm": 9108,
      "pháº£": 9109,
      "Ġkhá»ĳn": 9110,
      "ista": 9111,
      "usa": 9112,
      "adona": 9113,
      "Ġrihanna": 9114,
      "rÃ¡o": 9115,
      "á»±u": 9116,
      "erry": 9117,
      "rique": 9118,
      "Ġmaddison": 9119,
      "Ġisa": 9120,
      "Ġindia": 9121,
      "Ġkaty": 9122,
      "Ġallianz": 9123,
      "báº¹p": 9124,
      "dn": 9125,
      "Ġmig": 9126,
      "Ġwoo": 9127,
      "tyle": 9128,
      "Ġchibi": 9129,
      "Ġkyr": 9130,
      "Ġjordi": 9131,
      "Ġmediatek": 9132,
      "titi": 9133,
      "Ġline": 9134,
      "ĠngÃłi": 9135,
      "Ġthuáº¥n": 9136,
      "etz": 9137,
      "itas": 9138,
      "Ġmode": 9139,
      "Ġhead": 9140,
      "Ġpoint": 9141,
      "Ġidc": 9142,
      "Ġwilson": 9143,
      "Ġtelles": 9144,
      "sson": 9145,
      "xáº£": 9146,
      "ĠhÃº": 9147,
      "Ġchao": 9148,
      "Ġdá»©a": 9149,
      "Ġrain": 9150,
      "cháºŃu": 9151,
      "ives": 9152,
      "pee": 9153,
      "chÃºc": 9154,
      "Ġgigi": 9155,
      "Ġyáº¿m": 9156,
      "Ġour": 9157,
      "Ġsantos": 9158,
      "Ġhigher": 9159,
      "sar": 9160,
      "táº¯n": 9161,
      "xÃ´": 9162,
      "Ġnag": 9163,
      "cott": 9164,
      "Ġaudio": 9165,
      "Ġjoy": 9166,
      "Ġtripp": 9167,
      "Ġwonder": 9168,
      "31": 9169,
      "hd": 9170,
      "háº¥u": 9171,
      "will": 9172,
      "Ġalan": 9173,
      "voice": 9174,
      "visco": 9175,
      "Ġkovacic": 9176,
      "sam": 9177,
      "zstan": 9178,
      "Ġáº¿ch": 9179,
      "Ġdc": 9180,
      "Ġcafe": 9181,
      "Ġobl": 9182,
      "Ġamy": 9183,
      "vers": 9184,
      "ĠkÃ¨o": 9185,
      "Ġedinson": 9186,
      "Ġtoronto": 9187,
      "ĠhÆ°Æ¡u": 9188,
      "Ġboots": 9189,
      "Ġkay": 9190,
      "ĠsÃ¡o": 9191,
      "Ġcháº¯t": 9192,
      "Ġbenj": 9193,
      "burn": 9194,
      "Ġmemphis": 9195,
      "Ġneuer": 9196,
      "Ġkath": 9197,
      "aoke": 9198,
      "Ġae": 9199,
      "Ãµng": 9200,
      "oop": 9201,
      "cow": 9202,
      "Ġchuá»ĵng": 9203,
      "she": 9204,
      "Äĳáº¯m": 9205,
      "ĠlÃŃ": 9206,
      "arta": 9207,
      "iston": 9208,
      "Ġsum": 9209,
      "Ġsee": 9210,
      "má»Ńa": 9211,
      "Ġbiáº¿c": 9212,
      "ĠnhÃłn": 9213,
      "Ġqg": 9214,
      "Ġafter": 9215,
      "Ġslam": 9216,
      "Ġglass": 9217,
      "Ġkorea": 9218,
      "Ġgeneral": 9219,
      "Ġkyrgy": 9220,
      "86": 9221,
      "lÃ³t": 9222,
      "Ġláº§y": 9223,
      "Ġflu": 9224,
      "Ġana": 9225,
      "beau": 9226,
      "Ġbinz": 9227,
      "ĠhÄĳqt": 9228,
      "Ġelectronics": 9229,
      "Ġcgv": 9230,
      "Ġcaffeine": 9231,
      "Ġtiger": 9232,
      "Ġmill": 9233,
      "ĠmÃ©o": 9234,
      "tráº¡ch": 9235,
      "Ġmuller": 9236,
      "Ġauto": 9237,
      "Ġipv": 9238,
      "Ġxá»īu": 9239,
      "aves": 9240,
      "sal": 9241,
      "Ġnháº¥c": 9242,
      "ĠnÃŃu": 9243,
      "Ġhwang": 9244,
      "Ġpiz": 9245,
      "Ġdá»¡": 9246,
      "Ġrus": 9247,
      "Ġthie": 9248,
      "olid": 9249,
      "iko": 9250,
      "lain": 9251,
      "Ġhee": 9252,
      "nghÃªnh": 9253,
      "Ġlcd": 9254,
      "Ġkid": 9255,
      "Ġmck": 9256,
      "ĠnhÃ³c": 9257,
      "Ġnáº¡c": 9258,
      "Ġwend": 9259,
      "Ġnhá»Ŀn": 9260,
      "boy": 9261,
      "Ġflorentino": 9262,
      "cáº¥m": 9263,
      "Ġáº¡i": 9264,
      "Ġlily": 9265,
      "Ġnbc": 9266,
      "Ġcháº£o": 9267,
      "Ġmomo": 9268,
      "Ġamoled": 9269,
      "Ġadele": 9270,
      "duá»ĩ": 9271,
      "Ġkaraoke": 9272,
      "Ġnicola": 9273,
      "Ġdiaz": 9274,
      "Ġblancos": 9275,
      "Ġslovakia": 9276,
      "Ġtrippier": 9277,
      "gro": 9278,
      "sáº¯t": 9279,
      "Ġvlog": 9280,
      "Ġnico": 9281,
      "Ġnáº¥c": 9282,
      "ond": 9283,
      "Ġdor": 9284,
      "Ġflo": 9285,
      "Ġjcu": 9286,
      "Ġnoel": 9287,
      "Ġsolut": 9288,
      "Ġoneplus": 9289,
      "Ġdenim": 9290,
      "Ġeasb": 9291,
      "Ġcardiff": 9292,
      "Ġkyrgyzstan": 9293,
      "cáº¡n": 9294,
      "ile": 9295,
      "ĠcÃło": 9296,
      "Ġnhá»įc": 9297,
      "Ġquáº¥t": 9298,
      "ÃŃa": 9299,
      "Ġmaradona": 9300,
      "mingham": 9301,
      "Ġbotu": 9302,
      "vidia": 9303,
      "Ġesa": 9304,
      "zech": 9305,
      "Ġbenjamin": 9306,
      "gala": 9307,
      "red": 9308,
      "Ġmáº©u": 9309,
      "ĠhÆ°á»Ŀng": 9310,
      "Ġhost": 9311,
      "Ġvip": 9312,
      "Ġjump": 9313,
      "izzie": 9314,
      "Ġtdtt": 9315,
      "Ġbleacher": 9316,
      "instagram": 9317,
      "Ġtier": 9318,
      "Ġcau": 9319,
      "Ġliá»ħu": 9320,
      "Ġmao": 9321,
      "Ġháº¯c": 9322,
      "Ġxá»ĳp": 9323,
      "thua": 9324,
      "Ġalli": 9325,
      "Ġengland": 9326,
      "somware": 9327,
      "Ġsneak": 9328,
      "cáº·p": 9329,
      "háº«ng": 9330,
      "uri": 9331,
      "unk": 9332,
      "Ġproject": 9333,
      "heem": 9334,
      "Ġbhxh": 9335,
      "Ġumtiti": 9336,
      "stu": 9337,
      "vÃ¡c": 9338,
      "xÆ¡": 9339,
      "zen": 9340,
      "qui": 9341,
      "ging": 9342,
      "ĠhÃ¹m": 9343,
      "Ġeven": 9344,
      "Ġlevan": 9345,
      "cuador": 9346,
      "ovo": 9347,
      "zaar": 9348,
      "Ġreno": 9349,
      "cáº¥t": 9350,
      "glo": 9351,
      "tÃ´n": 9352,
      "ering": 9353,
      "hÃ³t": 9354,
      "thuÃª": 9355,
      "Ġvigo": 9356,
      "cuá»ĵng": 9357,
      "Ġsanta": 9358,
      "Ġbirmingham": 9359,
      "Ġgluco": 9360,
      "fil": 9361,
      "liÃªng": 9362,
      "vá»ĵng": 9363,
      "Ã¦": 9364,
      "ĠtuÃ´": 9365,
      "ĠnÃ³c": 9366,
      "Ġjane": 9367,
      "Ġjeon": 9368,
      "Ġbonucci": 9369,
      "woman": 9370,
      "Ġfalcon": 9371,
      "Ġdeclan": 9372,
      "Ġhiguain": 9373,
      "ĠtÃ½": 9374,
      "ĠtÃłng": 9375,
      "ĠtÃ©": 9376,
      "Ġbac": 9377,
      "Ġpage": 9378,
      "trol": 9379,
      "Ġuc": 9380,
      "Ġivy": 9381,
      "Ġmarsh": 9382,
      "Ġransomware": 9383,
      "Ġsahako": 9384,
      "Ġstarship": 9385,
      "Ġcarbohydrate": 9386,
      "kan": 9387,
      "Ġgao": 9388,
      "chÃło": 9389,
      "Ġgiá»Ŀi": 9390,
      "Ġtoken": 9391,
      "áºµm": 9392,
      "Ġoliver": 9393,
      "Ġkaity": 9394,
      "Ġfederico": 9395,
      "sá»Ļ": 9396,
      "sÃºc": 9397,
      "táº»": 9398,
      "ĠnÃ£": 9399,
      "Ġgá»Ŀ": 9400,
      "Ġgary": 9401,
      "giáº·t": 9402,
      "Ġphá»Ľt": 9403,
      "elson": 9404,
      "Ġwould": 9405,
      "actic": 9406,
      "ghi": 9407,
      "Ġtrá»Ĺi": 9408,
      "ĠtrÃ¨o": 9409,
      "Ġgout": 9410,
      "Ġfern": 9411,
      "Ġanne": 9412,
      "reen": 9413,
      "Ġseattle": 9414,
      "Ġmatthew": 9415,
      "Ġestrogen": 9416,
      "Ġgranada": 9417,
      "wrence": 9418,
      "mÃ¡": 9419,
      "Ġcytok": 9420,
      "music": 9421,
      "Ġprinceton": 9422,
      "furt": 9423,
      "kov": 9424,
      "sÃ´i": 9425,
      "Ġczech": 9426,
      "Äĳao": 9427,
      "Ġnvidia": 9428,
      "Ġhuff": 9429,
      "Ġberk": 9430,
      "Ġblackpink": 9431,
      "Ġcindy": 9432,
      "Ġmedicine": 9433,
      "Ġjorge": 9434,
      "bil": 9435,
      "cet": 9436,
      "xen": 9437,
      "Ġá»Ŀi": 9438,
      "ĠmÃ²": 9439,
      "ont": 9440,
      "khtar": 9441,
      "lock": 9442,
      "Ġjoel": 9443,
      "Ġharris": 9444,
      "Ġjoseph": 9445,
      "Ġwells": 9446,
      "ĠhÃ³m": 9447,
      "Ġpakistan": 9448,
      "cus": 9449,
      "eh": 9450,
      "Ġmes": 9451,
      "ĠgiÃ´ng": 9452,
      "Ġraheem": 9453,
      "Ġill": 9454,
      "Ġzo": 9455,
      "linum": 9456,
      "ikaa": 9457,
      "nab": 9458,
      "xt": 9459,
      "Ġá»ĳp": 9460,
      "Ġalv": 9461,
      "vajal": 9462,
      "Ġcurie": 9463,
      "xÃŃ": 9464,
      "ħu": 9465,
      "ĠcÆ°á»¡i": 9466,
      "Ġvallad": 9467,
      "ĠnÃ´i": 9468,
      "Ġdin": 9469,
      "Ġwomen": 9470,
      "Ġtwo": 9471,
      "Ġmoscow": 9472,
      "Ġmachine": 9473,
      "Ġlipid": 9474,
      "Ġbotulinum": 9475,
      "05": 9476,
      "32": 9477,
      "ranh": 9478,
      "nhÃ¬n": 9479,
      "Ġláº¡ch": 9480,
      "arlison": 9481,
      "Ġathlet": 9482,
      "kÃ¨": 9483,
      "lá»Ŀ": 9484,
      "mÄĥng": 9485,
      "Ġcra": 9486,
      "ĠnhÃºn": 9487,
      "ĠcÃ³c": 9488,
      "Ġhoon": 9489,
      "Ġbru": 9490,
      "Ġgoal": 9491,
      "Ġvalladolid": 9492,
      "44": 9493,
      "ith": 9494,
      "ten": 9495,
      "Ġáº£m": 9496,
      "ĠlÃ©p": 9497,
      "Ġfair": 9498,
      "Ġwhi": 9499,
      "Ġoz": 9500,
      "Ġgerard": 9501,
      "Ġsmalling": 9502,
      "cini": 9503,
      "dia": 9504,
      "heo": 9505,
      "Ġbb": 9506,
      "ĠlÃµm": 9507,
      "Ġkv": 9508,
      "ĠmáºŃp": 9509,
      "Ġtriá»ģn": 9510,
      "Ġsd": 9511,
      "ĠnÄĥ": 9512,
      "Ġcháº¡nh": 9513,
      "Ġecuador": 9514,
      "ĠÄĳoan": 9515,
      "rier": 9516,
      "Ġsanna": 9517,
      "Ġheart": 9518,
      "cá»¥t": 9519,
      "Ġcarvajal": 9520,
      "Ġoblak": 9521,
      "Ġlast": 9522,
      "quáº¡t": 9523,
      "chá»ķi": 9524,
      "Ġmul": 9525,
      "Ġany": 9526,
      "Ġroad": 9527,
      "ental": 9528,
      "abal": 9529,
      "Ġparac": 9530,
      "Ġblackberry": 9531,
      "Ġricharlison": 9532,
      "Ġfrankfurt": 9533,
      "Ġphenikaa": 9534,
      "ĠÃĹ": 9535,
      "Ġmanagement": 9536,
      "Ġvá»īa": 9537,
      "ĠÄĳÆ°": 9538,
      "Ġnar": 9539,
      "chang": 9540,
      "Ġconcept": 9541,
      "khoÃ¡i": 9542,
      "Ġchuá»Ļc": 9543,
      "tráº»o": 9544,
[...]
